[PAD]
[UNK]
[CLS]
[SEP]
[MASK]
[URL]
[RT]
[TAG]
[MEN]
!
"
$
%
&
'
(
)
*
+
,
-
.
/
0
1
2
3
4
5
6
7
8
9
:
;
=
?
A
E
G
L
M
N
R
T
U
[
\
]
^
_
`
a
b
c
d
e
f
g
h
i
j
k
l
m
n
o
p
q
r
s
t
u
v
w
x
y
z
{
|
}
~
¡
¢
£
¥
§
«
¬
¯
°
²
³
´
¶
·
¹
º
»
½
¾
¿
×
à
á
â
ã
ä
æ
ç
è
é
ë
í
î
ï
ñ
ò
ó
ô
ö
÷
ø
ú
û
ü
ē
ğ
ı
ĺ
ō
ő
œ
ŕ
ś
ş
š
ǟ
ə
ɪ
ɴ
ʀ
ʌ
ʏ
ʙ
ʜ
ʟ
ˈ
ˌ
˖
˘
˚
˛
́
̇
̑
̗
̦
̶
̿
η
ξ
π
τ
а
г
д
е
ж
и
к
л
м
н
о
п
р
с
т
я
ָ
ׁ
א
נ
ש
،
؟
ا
ب
ة
ت
ج
ر
ز
س
ع
ف
ل
م
ن
و
ي
َ
ٱ
ک
ی
۔
ۜ
ۣ
आ
ए
क
त
द
न
प
य
र
ल
व
श
ष
स
ह
ा
ि
ु
े
ो
्
।
জ
ট
ন
ব
র
া
ি
্
ச
ஜ
ட
த
ப
ம
ல
வ
ா
ு
்
ก
ข
ค
ง
จ
ซ
ด
ต
ถ
ท
ธ
น
บ
ป
พ
ฟ
ภ
ม
ย
ร
ล
ว
ส
ห
อ
ฮ
ะ
ั
า
ิ
ี
ื
ู
ฺ
฿
เ
แ
โ
ใ
ไ
็
่
้
์
๑
๖
༻
࿌
ሀ
ላ
ል
መ
ም
ረ
ራ
ር
በ
ባ
ብ
ተ
ች
ነ
ን
አ
ከ
ካ
የ
ዳ
ገ
ᴀ
ᴄ
ᴅ
ᴇ
ᴊ
ᴗ
ᴛ
ᴜ
ᴠ
ᴡ
‑
–
—
―
‘
’
‚
“
”
„
†
•
…
›
‽
⁃
⁰
₫
€
₱
₹
₺
℅
ℎ
ℓ
←
↑
→
↓
↻
∆
√
∞
≠
≦
≧
⊂
⊰
⊱
⊶
①
②
④
⑧
ⓕ
ⓛ
ⓜ
ⓞ
━
┃
┈
┊
┎
┳
┻
═
║
╔
╗
╚
╝
╭
╮
╯
╰
╱
╲
▀
▁
▂
▃
▄
▅
▆
▇
▏
▔
▕
■
□
▸
►
▽
◄
●
◕
◦
★
☆
☛
☻
♡
⚘
✓
✩
✪
✫
✮
✯
✶
✾
✿
❉
❛
❜
❝
❞
➜
➤
➪
➶
➷
⟟
⠀
⸻
、
。
〃
《
》
「
」
『
』
【
】
い
え
か
が
き
さ
た
と
の
り
を
ん
ア
イ
ゥ
ウ
エ
ォ
カ
ク
グ
ゲ
コ
シ
ジ
ス
ズ
セ
タ
ダ
チ
ッ
ツ
ト
ド
ナ
ノ
ハ
バ
パ
ヒ
フ
ブ
プ
ベ
ホ
ポ
マ
ミ
ム
メ
ョ
ラ
リ
ル
レ
ン
・
ー
ヽ
ヾ
ㄩ
ㅡ
丫
中
事
人
件
何
利
卄
博
合
听
哈
地
址
士
奇
好
尺
希
影
怪
插
文
映
格
波
澈
火
特
画
畫
異
社
窃
箭
繋
约
群
脑
荘
过
通
金
长
闩
闫
電
ꕀ
가
갓
갯
구
균
그
김
나
널
노
단
대
독
드
레
로
루
리
릴
마
미
민
밍
바
박
버
범
븐
빈
선
세
소
수
스
승
심
아
앤
어
에
엠
여
영
오
온
와
요
우
유
윤
을
이
재
전
제
주
준
즈
진
차
창
철
최
카
케
타
터
토
프
해
현
호
효
희
︎
️
！
＃
（
）
＊
，
０
１
２
６
：
？
＿
ａ
ｂ
ｃ
ｄ
ｅ
ｆ
ｇ
ｉ
ｋ
ｌ
ｎ
ｏ
ｐ
ｒ
ｓ
ｔ
ｗ
～
｡
･
￣
￦
￼
𓈒
𝐀
𝐁
𝐂
𝐃
𝐄
𝐅
𝐆
𝐇
𝐈
𝐉
𝐊
𝐋
𝐌
𝐍
𝐎
𝐏
𝐑
𝐒
𝐓
𝐔
𝐖
𝐘
𝐚
𝐛
𝐜
𝐝
𝐞
𝐟
𝐠
𝐡
𝐢
𝐤
𝐥
𝐦
𝐧
𝐨
𝐩
𝐫
𝐬
𝐭
𝐮
𝐯
𝐰
𝐲
𝐿
𝑆
𝑊
𝑎
𝑑
𝑒
𝑔
𝑖
𝑙
𝑛
𝑜
𝑝
𝑟
𝑠
𝑡
𝑤
𝑥
𝑨
𝑪
𝑬
𝑭
𝑮
𝑰
𝑳
𝑴
𝑵
𝑶
𝑷
𝑹
𝑺
𝑻
𝒂
𝒃
𝒄
𝒅
𝒆
𝒈
𝒉
𝒊
𝒌
𝒍
𝒎
𝒏
𝒐
𝒑
𝒓
𝒔
𝒕
𝒖
𝒗
𝒘
𝒚
𝒶
𝒹
𝒾
𝓀
𝓂
𝓃
𝓇
𝓌
𝓎
𝓕
𝓗
𝓟
𝓪
𝓮
𝓲
𝓵
𝓷
𝓸
𝓻
𝓽
𝔀
𝔂
𝔗
𝔞
𝔟
𝔠
𝔢
𝔥
𝔦
𝔩
𝔫
𝔬
𝔭
𝔯
𝔰
𝔱
𝔲
𝔴
𝔶
𝕋
𝕖
𝕗
𝕙
𝕚
𝕟
𝕠
𝕣
𝕪
𝕭
𝖆
𝖈
𝖉
𝖊
𝖋
𝖎
𝖑
𝖒
𝖓
𝖔
𝖕
𝖗
𝖘
𝖙
𝖚
𝖛
𝖜
𝖺
𝖽
𝖾
𝗁
𝗂
𝗅
𝗍
𝗔
𝗕
𝗖
𝗗
𝗘
𝗙
𝗚
𝗛
𝗜
𝗞
𝗟
𝗠
𝗡
𝗢
𝗣
𝗥
𝗦
𝗧
𝗨
𝗩
𝗪
𝗬
𝗮
𝗯
𝗰
𝗱
𝗲
𝗳
𝗴
𝗵
𝗶
𝗸
𝗹
𝗺
𝗻
𝗼
𝗽
𝗿
𝘀
𝘁
𝘂
𝘃
𝘄
𝘅
𝘆
𝘇
𝘐
𝘛
𝘢
𝘣
𝘤
𝘥
𝘦
𝘧
𝘨
𝘩
𝘪
𝘬
𝘭
𝘮
𝘯
𝘰
𝘱
𝘳
𝘴
𝘵
𝘶
𝘷
𝘸
𝘺
𝘼
𝘽
𝘾
𝘿
𝙀
𝙁
𝙂
𝙃
𝙄
𝙆
𝙇
𝙈
𝙉
𝙊
𝙋
𝙍
𝙎
𝙏
𝙐
𝙑
𝙒
𝙓
𝙔
𝙖
𝙗
𝙘
𝙙
𝙚
𝙛
𝙜
𝙝
𝙞
𝙡
𝙣
𝙤
𝙥
𝙧
𝙨
𝙩
𝙪
𝙬
𝙮
𝙱
𝙸
𝙹
𝙺
𝚃
𝚆
𝚊
𝚌
𝚎
𝚐
𝚑
𝚒
𝚔
𝚕
𝚖
𝚗
𝚘
𝚛
𝚜
𝚝
𝚞
𝚠
𝚢
𝟎
𝟏
𝟐
𝟑
𝟓
𝟮
🅐
🅑
🅕
🅘
🅚
🅛
🅝
🅢
🅴
🇦
🇧
🇨
🇪
🇬
🇭
🇮
🇲
🇸
🇹
🇺
##r
##u
##m
##p
##e
##t
##o
##i
##c
##n
##a
##f
##l
##y
##k
##s
##d
##w
##x
##b
##h
##8
##7
##g
##v
##0
##1
##5
##9
##6
##3
##4
##j
##z
##q
##2
##𝐧
##𝐝
##´
##𝐄
##𝐇
##𝐈
##𝐍
##𝐃
##ı
##é
##𝘪
##𝘴
##ã
##ä
##𝘀
##𝘰
##𝘳
##𝘦
##𝘷
##̇
##𝐚
##𝐭
##𝐮
##𝐫
##𝐞
##𝙏
##𝙊
##𝙍
##𝙀
##×
##✓
##°
##¢
##о
##м
##и
##к
##с
##𝘿
##𝘬
##≠
##ゲ
##ー
##è
##̦
##র
##্
##à
##𝘱
##º
##𝓻
##𝓽
##𝔀
##𝓸
##⠀
##ａ
##ｐ
##ｔ
##ｏ
##ｓ
##ʌ
##ò
##ü
##𝚒
##ா
##ல
##₫
##ç
##𝗶
##𝘁
##𝗵
##𝗱
##𝗿
##𝗮
##𝘄
##𝗹
##𝔩
##𝔞
##𝔠
##𝔢
##𝙣
##𝙛
##𝙡
##𝙪
##𝙚
##𝙘
##→
##ö
##ा
##창
##윤
##𝘵
##𝒏
##０
##𝐥
##ो
##ल
##𝗲
##𝗻
##𝘆
##￼
##ل
##ج
##ز
##ي
##ر
##ة
##𝐒
##𝐑
##𝖛
##𝒐
##𝒓
##𝒕
##𝒂
##𝒚
##𝒍
##œ
##𝗼
##í
##𝗴
##𝙧
##𝙤
##𝙜
##𝙙
##ا
##パ
##イ
##ダ
##マ
##ン
##𝐰
##𝐲
##ᴇ
##ᴀ
##ʀ
##ô
##🅑
##🅛
##🅐
##🅚
##า
##ร
##ค
##ถ
##ู
##ก
##╭
##╲
##▏
##┈
##╱
##╮
##┊
##╰
##╯
##â
##ッ
##ク
##€
##ል
##ነ
##𝘭
##𝘤
##𝘮
##요
##바
##ع
##م
##𝗯
##𝓷
##𝔬
##𝔲
##া
##ি
##민
##호
##æ
##ธ
##ด
##อ
##ั
##น
##บ
##ָ
##ש
##ׁ
##א
##𝒆
##𝒅
##𝒔
##á
##어
##가
##유
##𝗳
##ñ
##ë
##አ
##ረ
##ብ
##画
##好
##き
##𝘩
##𝗸
##𝗪
##𝗔
##𝗣
##𝗦
##و
##ی
##በ
##ር
##토
##𝙨
##𝗁
##𝗂
##스
##범
##𝙖
##𝟮
##𝑒
##𝓀
##𝐨
##シ
##ó
##ن
##ف
##ب
##𝘶
##𝘥
##℅
##이
##𝑨
##𝑺
##𝑻
##𝑬
##𝑹
##𝚝
##𝑙
##î
##𝙉
##˚
##˛
##★
##𝕠
##타
##ú
##ж
##а
##л
##𝙎
##𝙐
##𝙂
##𝘼
##ş
##约
##地
##址
##𝔥
##²
##𝓃
##♡
##𝗺
##𝚎
##𝚕
##☛
##▽
##ন
##ট
##𝐦
##𝐢
##𝐠
##ʟ
##¥
##ム
##𝗙
##━
##┻
##т
##レ
##ス
##ョ
##𝘨
##𝘸
##𝘢
##𝐡
##𝐬
##³
##𝙩
##𝙗
##カ
##リ
##𝙒
##𝙆
##𝙔
##진
##아
##제
##나
##여
##에
##그
##대
##로
##을
##︎
##≦
##𝕣
##𝘯
##𝐟
##■
##□
##●
##𝔦
##𝔰
##ĺ
##𝖕
##𝖊
##𝖗
##𝖎
##𝖓
##𝖈
##𝖉
##ｒ
##ｅ
##я
##ሀ
##ገ
##ራ
##ች
##ን
##𝖔
##た
##人
##を
##え
##何
##か
##𝘂
##𝔱
##𝔯
##A
##G
##𝗗
##𝗨
##𝗖
##𝗧
##𝗜
##𝗢
##𝗡
##ア
##ツ
##ื
##ย
##ไ
##้
##④
##⑧
##क
##्
##स
##प
##र
##े
##𝗰
##́
##ト
##フ
##𝚗
##𝚘
##𝚠
##𝘃
##𝒌
##𝐓
##𝖙
##𝖆
##ባ
##균
##ล
##แ
##ฮ
##์
##ี
##่
##𝒉
##𝒊
##𝒑
##ከ
##ም
##জ
##𝚌
##𝚊
##𝚞
##𝚜
##❝
##𝘧
##£
##س
##𝐩
##ｆ
##¾
##𝐅
##𝑥
##𝑝
##𝑜
##𝑠
##𝑑
##พ
##ต
##เ
##𝟎
##𝟐
##𝟏
##ت
##즈
##𝐂
##𝘾
##ξ
##ル
##ɪ
##ʙ
##ʏ
##ะ
##โ
##จ
##ห
##ง
##ท
##ว
##ฟ
##็
##터
##널
##𝐋
##𝐀
##리
##द
##श
##버
##்
##ச
##ு
##ட
##우
##ə
##ˈ
##ō
##ｌ
##ｄ
##𝖘
##ซ
##ข
##☆
##𝙑
##𝙃
##𝙄
##￣
##노
##미
##카
##𝐜
##◄
##𝒄
##ใ
##𝙈
##ｇ
##ｎ
##𝗽
##ⓛ
##┎
##û
##ላ
##ม
##ส
##𝐛
##┳
##소
##단
##丫
##ㄩ
##▂
##선
##𝐤
##𝚑
##𝚔
##セ
##バ
##재
##영
##̗
##𝗩
##𝗘
##ۣ
##ۜ
##𝙥
##𝖜
##𝒖
##ᴗ
##ᴠ
##р
##②
##𝐌
##𝐔
##箭
##火
##と
##繋
##が
##り
##い
##𝐁
##影
##異
##博
##士
##𝚖
##𝚐
##𝗥
##𝚢
##𝓵
##𝖑
##𝗟
##ⓞ
##┃
##ラ
##ブ
##𝒶
##𝓎
##❛
##๑
##ᴛ
##ᴄ
##希
##澈
##𝗠
##𝘺
##𝒎
##ğ
##𝑰
##ø
##π
##𝓪
##𝔂
##ℎ
##𝑛
##주
##🇸
##⁰
##さ
##ん
##빈
##𝖋
##𝑖
##𝒾
##𝓌
##š
##𝓲
##𝓮
##̶
##̿
##▀
##𝙝
##𝙇
##𝐯
##①
##プ
##ℓ
##𝙁
##𝐎
##𝐘
##T
##𝘽
##𝙋
##𝐊
##▔
##ካ
##य
##ポ
##タ
##÷
##𝑎
##ォ
##～
##ह
##ु
##त
##ɴ
##ᴅ
##ベ
##𝚛
##▕
##𝔫
##½
##𝘅
##ｗ
##е
##ウ
##ズ
##の
##독
##◕
##ǟ
##𝑶
##𝑮
##ő
##𝖾
##𝗍
##𝖺
##𝗅
##𝖽
##√
##ष
##н
##д
##ゥ
##ዳ
##𝙹
##🇺
##த
##케
##畫
##¹
##ि
##窃
##听
##ᴜ
##앤
##오
##프
##❉
##⊱
##ナ
##𝒗
##ⓕ
##メ
##コ
##ミ
##➤
##루
##𝒈
##⊶
##闩
##长
##𝗚
##𝐆
##฿
##𝕚
##𝕟
##𝕪
##チ
##𝑴
##ノ
##🅘
##🅝
##🅢
##𝗛
##𝑡
##𝕙
##𝕖
##↓
##𝗬
##𝗕
##𝓂
##𝓇
##中
##文
##社
##群
##ド
##２
##☻
##₺
##𝙞
##세
##븐
##𝖚
##𝖒
##𝘇
##⚘
##̑
##グ
##ｉ
##ｋ
##𝑔
##희
##철
##𝔭
##𝗞
##エ
##드
##레
##🇨
##ⓜ
##ิ
##➷
##𝒹
##𝙓
##∆
##𝑟
##️
##ｃ
##현
##M
##E
##N
##η
##τ
##ジ
##𝒃
##ம
##п
##R
##L
##˘
##利
##波
##特
##வ
##ک
##َ
##마
##차
##ヾ
##U
##밍
##릴
##ภ
##ŕ
##ē
##와
##ए
##𝙬
##𝑷
##न
##효
##승
##준
##ï
##𝟓
##➶
##过
##🅕
##𝙮
##ฺ
##荘
##怪
##事
##件
##व
##𝐏
##❜
##▃
##▄
##▅
##▆
##▇
##▁
##EN
MEN
th
##in
##er
the
##on
##ou
##ing
##at
##an
##es
##ar
##or
##AG
TAG
##en
##it
##ed
##ll
to
##is
an
you
##re
##ac
##as
##et
##om
in
and
of
##le
##ot
##ic
it
##ve
##ow
is
wh
##st
be
##al
on
##ay
##ut
##ion
##RL
URL
re
##ace
##id
he
that
##ith
st
for
with
ha
##ld
##se
##ly
##ig
face
##am
##oo
sh
##ent
##op
##ver
##ke
##ad
##il
##ec
this
ch
##art
##ch
##ir
##im
not
##ter
we
##ill
do
li
##th
##ur
##all
are
##ere
pr
##ol
ne
##ee
##one
##ht
so
##and
as
##pp
was
##ust
tr
##ould
but
they
have
##un
##ce
##est
##ers
##ie
my
your
##ear
me
##ist
can
##ome
##ight
##um
am
##ck
go
su
##ul
##ong
all
mo
sp
ma
what
fr
##ess
##ue
##us
##ge
ro
ab
##ry
##ally
al
com
##ant
just
or
##out
##ct
like
de
no
##ation
##ore
at
##au
lo
##ack
wor
un
##ate
if
##ook
pe
po
##ink
than
don
jo
##ab
en
heart
##ain
##lo
##ect
##iv
##ies
##gh
con
one
up
will
out
get
peop
##ap
about
people
le
mar
##oun
##ast
from
##if
##ak
##ood
se
##ity
co
sm
##ive
##end
who
ar
##ame
pro
kn
##ans
ever
would
##em
man
##ard
##ears
by
##ime
how
any
pl
some
there
##ite
ex
##ib
##ft
us
br
##ire
think
know
more
did
##ort
cl
has
sa
see
##reat
##ind
##ment
dis
##ine
##int
##her
bl
ag
gr
##de
##os
them
##ice
##ven
##ag
##iling
when
sc
##ks
cr
##pt
##der
bec
good
smiling
##ause
##vel
every
act
mov
##og
sw
now
time
hand
##ase
his
##ous
her
##ia
say
new
happ
##hing
amp
##ass
te
she
look
##atch
tw
ad
car
love
dr
##act
##own
##eep
##mo
ey
their
why
back
right
need
bu
rock
##ff
does
because
want
##ake
##lling
##ongue
joy
##ide
##our
##king
tears
wr
##ond
##ough
red
##ip
im
too
et
only
##way
##ure
eyes
##ree
##00
rocket
should
star
##ish
##ick
##ions
##iving
sk
watch
##ound
##ign
el
bet
nft
fo
##uck
point
gu
oth
##av
off
##pl
make
had
been
even
##so
qu
##ich
great
pers
##augh
our
thing
mu
ve
show
wom
##day
##az
over
hel
then
part
fire
##ence
int
##oy
##be
him
##ery
person
etongue
pay
##iz
flo
##ial
help
rolling
ple
##ning
##ber
##ory
way
really
still
##age
##able
res
got
much
laugh
hands
pre
here
##iss
##ated
day
##li
##cc
movie
##giving
af
##od
##ud
cry
were
well
##ade
being
could
marvel
app
##bs
##ics
chan
##qu
also
har
##per
book
RT
##ah
fir
##ope
##rist
##ount
read
other
never
##ens
fe
ser
world
##man
let
med
##fe
trans
##akes
##cr
##itt
laughing
floor
##ose
##ail
##ical
##eet
happy
##ss
##ason
str
first
skin
##ax
real
very
cont
please
thanks
##lf
##ict
20
better
going
down
##eck
##oney
most
##ult
tone
##ary
char
##ars
##ious
##thing
##ark
##fer
again
didn
##ying
won
##co
work
##ull
best
thr
under
##ath
christ
##ile
##ild
may
lot
##aw
light
check
op
money
##app
##omet
take
many
##ider
##are
thank
##ton
pie
##les
##ach
inter
these
dec
##ful
where
##ms
##ght
##eel
##olog
##mas
big
lol
same
per
##read
mark
fun
ll
doesn
yes
years
##ved
##ilet
ass
##ool
pot
which
ow
##ible
##mob
##ump
##ne
##ting
art
somet
said
##ually
def
tmob
##amp
sweep
harry
ye
those
into
someone
##ving
##ian
##ames
##pr
##llow
fl
year
after
sweepst
coll
its
women
sweepstakes
tmobilet
play
ph
tmobiletgiving
bot
supp
##ors
sign
made
##ations
##enc
##ait
##bl
tal
fil
prob
call
des
##ug
comp
##ways
##ise
elon
ho
comm
##com
##ought
bad
##orm
##ily
hope
##ty
##urn
stop
pres
feel
net
##ord
end
##xt
sure
own
pol
guy
##cl
bel
##ang
last
give
##other
##ance
life
start
something
##ves
fuck
home
inf
em
always
##self
mean
##ale
##iver
##eric
##ied
ev
amaz
christmas
##ium
##fore
dif
oh
##ave
##ro
black
isn
moon
dc
##igh
keep
##up
##ject
count
##el
max
live
##uss
win
##ute
##ating
long
##sp
wait
fin
##na
two
##get
##oud
mas
##ci
aw
before
##kes
##unity
americ
##lix
actually
##dr
##ident
##sh
##flix
song
##ene
##ited
##ons
ter
##iew
game
men
miss
come
##ular
acc
old
##ual
##inion
rem
ob
netflix
##less
##ology
nothing
##gr
super
follow
space
##ream
fav
things
disc
inde
differ
##ash
spider
bo
att
ok
bit
##ense
use
cor
next
kid
##ert
eth
##iter
gen
mus
inv
##ates
fam
crying
movies
medium
list
##wis
white
season
##ny
##inning
shit
##men
mon
ret
hard
sl
put
done
belie
kind
fact
id
everyone
##acter
hum
thought
rac
god
##air
##ready
##pot
already
##wor
sec
yeah
##oss
character
##anc
##oc
##ition
rep
sex
happen
support
##ince
both
pop
free
mat
buy
care
child
james
##du
resp
maybe
anything
tax
post
##iting
film
##ward
spe
##cept
leg
bir
##ody
##iend
##ling
fem
high
10
##aking
another
gl
##acc
##ism
without
story
##potter
sy
bond
bas
##ho
wrong
tell
##la
##wars
##ower
race
##unch
underst
##ubl
doing
##ents
harrypotter
##illion
##ging
##ever
sweet
##br
find
##imes
class
202
grinning
pointing
xmen
##uth
bor
lewis
pret
looks
starwars
sim
thinking
fold
amazing
min
friend
saying
wee
vide
president
compl
loud
met
tweet
far
##ittle
folded
through
##ats
##vid
woman
rec
ide
##ouse
##yp
liter
##ings
true
such
change
##hand
team
index
understand
##ato
gre
though
imp
since
##ction
kill
vacc
##ision
cons
shib
hell
inst
birth
discuss
sor
fan
little
##ken
##ote
crypt
sur
everything
ra
male
##outh
gover
##ists
hearts
bro
##als
##itter
project
sun
trying
backhand
anyone
cle
sch
##joy
##io
series
##ney
ind
##ix
##ably
govern
sci
defin
getting
ep
enough
##ple
enjoy
today
different
quest
making
##ner
believe
100
##ater
##alth
cap
ask
while
loudly
button
##ki
la
soon
books
interest
##ger
hun
thum
##ety
rel
##ember
##ude
##sc
##arth
sorry
##bt
##ell
abs
##hn
##to
plan
must
family
government
##ead
thumbs
##earch
##row
full
##of
##work
reason
proble
seen
cour
##ru
run
##gl
##ma
clo
##ra
dark
cong
ins
eff
agree
collect
favor
##ically
potato
bat
##ift
mr
ps
##line
##hip
##my
covid
##ender
av
mag
birthday
iss
away
female
word
yet
action
congr
champ
left
country
##pop
open
makes
sol
party
cur
##ublic
inc
war
##led
ste
19
hor
top
kids
dog
wasn
bab
##aut
reg
##ither
ban
literally
fight
##ather
ess
ac
##owing
coming
else
##ete
bre
##bb
mind
wonder
head
pretty
##ities
looking
ear
hate
##ama
try
##body
##ines
mom
nice
##inal
##comm
link
around
contr
sound
rev
##ced
##ets
absol
exc
##ention
watching
creat
gon
##irl
perf
12
conf
##book
sn
##its
##apping
unpop
##coin
absolute
dam
unpopular
human
spec
tes
eas
hist
power
few
##ron
##umb
discussion
##ues
wish
stud
probably
##ush
##aming
sad
due
week
gonna
adv
ent
mer
##ric
par
##we
video
name
##wh
against
##til
##ital
fans
less
talking
tesla
dire
guys
ke
fut
##ster
rele
earth
pump
##ys
blo
##uff
exact
##ize
house
death
dou
mc
ed
law
thanksgiving
add
##ps
pec
##aper
##ently
clapping
##kin
essay
##ising
##ph
##ative
job
##ren
short
orig
doge
bull
favorite
having
might
##ock
##inking
twitter
rest
##gg
##itely
whole
join
spiderman
prot
hold
##ming
##aa
squ
##ments
turn
news
ele
question
hon
soci
pur
##earn
##ised
idea
faceer
##opinion
produ
col
pecan
future
##ange
unpopularopinion
cool
hu
##con
beaut
blue
poss
tom
definitely
##iously
gun
spark
bus
##af
##ences
##te
school
##iday
times
guess
place
##ivers
hey
share
##bo
##itch
mem
aren
beh
##ending
##ness
wouldn
launch
used
problem
pass
##ices
stand
clear
police
che
bid
deser
points
##hh
matter
mor
either
dest
crypto
mouth
days
prop
least
stup
lead
##ged
second
baby
##ures
stupid
girl
comic
prof
sing
##ike
##rew
ru
##oooo
others
set
om
trump
##sw
history
bar
opinion
imag
ext
talk
glo
sir
direct
##land
needs
children
del
##cial
##bond
facel
##key
fair
epis
##oice
terr
write
exactly
yourself
##ians
psy
##gn
arg
fant
hal
fucking
night
##ives
##uring
watched
##vers
market
gener
stay
stone
called
until
##ially
shr
##iness
hi
polit
effect
pumpkin
gal
gender
jamesbond
absolutely
public
rul
remember
says
bring
rid
drop
america
biden
gift
##hero
##aph
##ific
complete
##ew
pa
##verse
state
opp
course
tot
paper
vict
cla
community
##iant
##esome
disney
wow
incl
ill
original
health
potter
online
boy
mis
invest
case
ap
luck
##ilton
beautif
##ble
winking
##ott
##ane
bi
faceeri
million
ham
##ird
psych
month
##ution
hear
green
ce
##ately
mid
ant
move
comics
##ugging
youn
##any
anime
bill
gem
non
assign
##ished
##oke
based
found
##xed
contin
homework
awesome
f1
funny
side
ann
once
##ier
rules
view
##ret
##ility
ago
ref
dead
##ots
beautiful
##acy
##eter
##ired
subs
lost
excl
nar
##llect
seems
##wards
shrugging
##dd
eng
##20
instead
##ession
##apt
nfts
chance
return
pos
betwe
##tern
build
dick
##ency
respect
apple
loved
##iven
avail
between
saw
each
research
answ
musk
succ
hol
##ina
john
writing
##collect
2021
tit
##eg
cast
##dred
wall
dont
hundred
##med
##ins
##stem
faceect
vir
##used
##gy
test
##omb
stuff
##axy
damn
cost
##ading
mcu
ign
clown
available
vi
##ri
friends
honest
cause
exist
num
##tr
self
rights
masi
##ories
media
leave
using
tv
ts
##ta
haven
curr
learn
toget
phot
##sel
cat
ur
prom
together
fre
##iec
val
went
##no
##ards
low
sense
##velop
serv
means
##tu
##ancing
pict
came
##imate
##lee
allow
cal
able
##oose
sport
happened
social
obama
small
reading
201
000
##que
##eat
gets
mass
hot
perfect
##ode
##come
##ased
tra
##most
##community
system
worth
son
doll
bsc
cop
trail
##oid
saf
scene
wal
past
##arts
break
fac
##mm
##ked
develop
consider
##ley
cross
success
lotr
cover
entire
cance
listen
##ife
##ters
almost
##ption
demo
rich
accept
00
working
##iverse
##ared
##roy
##ized
wars
##ech
mess
wanted
##ains
shows
dude
review
form
jk
##ern
mil
##orn
claim
##ones
suit
die
lma
ball
##ulations
vis
fran
mars
tree
beg
etc
young
##bit
ones
vers
obv
vaccine
order
##use
took
issue
episode
account
##eco
##asses
answer
gt
##ality
sub
destroy
##selves
##cle
dev
number
##lt
democr
youtu
boring
auth
collision
poor
business
taking
##ipp
beaming
suck
dancing
##tle
united
##ully
adm
attack
##ison
cert
galaxy
dream
##dc
bitcoin
hero
aff
kiss
comment
50
##ik
hour
bt
sal
moment
##aring
amazon
states
pick
cars
truth
huge
horr
special
##tain
started
king
esp
cele
tur
mur
american
##side
##rect
save
nobody
token
behind
ah
##for
##ont
##rem
showing
ident
##play
##asa
##inting
##oth
psychology
wel
11
trailer
mult
characters
raising
30
block
imagine
during
fear
late
##form
joke
meta
spike
infl
##by
couldn
films
import
aud
cut
fig
hit
##ority
##azy
congrat
sparkles
##ustr
giving
dem
bomb
dumb
transp
##fully
sym
##ping
sounds
pat
mad
elect
collection
words
lmao
##ument
taxes
typ
hamilton
ready
##iction
holiday
fa
##son
##oph
arrow
paid
hah
racist
##gers
fall
sit
##ped
prev
dig
celebr
goes
become
single
works
heard
uk
maj
thrust
protect
15
comes
##where
##oon
forget
enter
strong
##ogw
youtube
vol
threat
##ogr
speak
brain
idi
assignment
##ational
viol
lat
safe
##go
popper
##oup
champions
given
ver
dep
##ape
interesting
##gan
##osed
nat
##ding
coin
easy
close
200
air
fia
cre
det
hur
glad
told
lap
emp
##astic
none
##enew
fail
sweat
##cover
artic
bin
games
deal
##ogwarts
##not
##yle
anim
##inated
shame
##ends
##boy
##ify
evil
const
ca
pen
##cent
peace
planet
includ
choice
woke
##iece
##he
##ther
##ecoin
billion
equ
line
mich
level
bless
wants
espec
sho
dear
dist
##ub
via
excited
##pal
especially
possible
cred
joe
offic
##reaming
cult
##net
land
afric
unf
##anger
lives
omg
half
wan
##ts
cow
##apped
##duc
picture
fine
##ants
sell
music
safety
##ned
##ker
waiting
rather
sil
##books
worst
mention
renew
tre
water
##ler
certain
batman
##cy
fle
fake
lar
okay
lu
##ges
forg
important
dm
row
science
educ
sent
er
wol
diss
##aken
champion
knows
version
gave
nor
food
##dle
congratulations
dan
gar
lock
cent
ris
faceerience
imm
three
doct
whatever
alone
surpr
##nb
cir
send
##now
##omics
impr
tsug
welcome
ali
themselves
##ering
ton
ment
##ios
championship
quite
weird
knew
slee
##ilar
title
var
##aces
##glasses
stat
##itten
simp
sunglasses
completely
ignor
seeing
shut
mill
facelain
thes
clearly
##lly
correct
effects
metaverse
treat
crit
actual
ya
nftcollect
design
requ
control
##idence
classes
##ograph
##cred
finally
insp
priv
drag
##hob
dickens
search
##vin
trust
living
##oting
price
engl
hello
##ledge
##asy
facepal
except
facepalming
dad
jack
struck
aut
##ett
smart
rom
da
##echn
near
box
##ried
##ces
##gram
franch
ast
age
di
shouldn
company
##itting
##dress
issues
##gle
fix
nasa
##ove
shot
ge
##ensive
bag
techn
##ls
thats
murder
needed
forward
term
cg
##reci
worse
address
simply
##ined
inform
globe
gas
crazy
##crib
##ior
cou
##ship
sat
##atic
##ana
climate
thesis
##ield
adapt
seriously
##ries
engine
##ring
##host
##oof
writ
travel
##ides
pain
refer
partying
den
##ample
rowling
##more
reality
meet
appreci
telling
sociology
squinting
hyp
fast
##mer
##ted
##ential
myself
slight
ir
que
cannot
##itive
dissert
boo
##set
fly
ghost
totally
bnb
cy
##like
wonderful
dissertation
incred
stock
favour
shiba
burn
##army
25
iron
pleading
##ten
los
playing
facts
incre
est
gone
##ero
honestly
lie
##ases
seem
track
13
tar
##ga
canad
franchise
ppl
calling
anti
##oms
justice
debt
article
later
##zy
##ergy
event
je
sick
##ination
congrats
naz
magic
snow
##ured
fantastic
create
brit
##ume
##ural
plat
ethics
norm
##ushed
society
deep
fing
china
eye
nftart
missed
purple
rose
allowed
stre
lad
months
scre
writers
tried
##fl
##ator
##aving
result
cond
##coming
artist
phys
##yy
superhero
sciences
middle
takes
##uly
report
stories
example
common
tsuga
double
##ister
vote
##ales
shop
choose
continue
digital
disapp
##ites
##eth
knowledge
rob
##ald
##amation
##liver
sour
blood
camp
lab
##inc
repl
early
vs
##etic
group
difference
gay
path
##arter
##ulation
cam
lord
piece
##oint
energy
draw
2022
##mon
created
##urs
##vengers
bc
himself
advent
##fs
tho
rece
plus
##comics
simple
##ael
##ades
doctor
##orge
gold
tongue
##ulous
arr
doubt
fantasy
author
##yr
##edy
secret
argument
##gest
liber
loc
repr
asking
main
final
##do
##ified
anymore
deserve
##ris
##inu
##ided
18
dat
##yn
info
##shit
killed
risk
conc
anyway
corru
##asing
##ended
##ological
slightly
##ouch
release
obviously
lim
cos
banks
outer
asked
##red
##0s
galaxyhero
body
##back
quick
december
force
serious
exclamation
fal
goo
##cus
tele
##action
paying
novel
##uu
##ages
victim
foot
ach
remo
deb
eur
##loki
key
mand
bank
development
alien
colle
idiot
1st
mine
##bal
gotta
subsid
##itions
happens
fas
haw
##ury
grow
##away
##ball
driver
transphob
dox
born
pan
taken
##home
liked
four
##ique
##aps
truly
##ibly
reply
record
podc
99
along
##nel
proper
aster
hat
##pect
office
##ii
##istic
room
##ortun
respons
jud
mot
terrible
wolver
vill
adult
appro
changed
released
pic
##ether
however
jour
##nia
worked
surv
hom
##essed
##000
mask
peter
commun
##zz
##ann
role
prefer
evidence
bene
card
##bol
wanna
cis
port
wealth
exce
amount
personal
master
podcast
##essive
agre
##ruct
lift
unless
universe
millions
pit
##ishing
english
hop
pand
color
disag
##ounds
17
##iel
michael
racism
scen
##tt
##bar
likely
figure
cute
known
city
zero
##wood
invol
forever
##amed
hours
brand
christian
##cedes
##usive
##ocur
pal
rad
##uce
##off
tick
thread
##empt
sale
avengers
##lon
##inem
supposed
influ
outside
attention
jes
##ient
##the
spread
cryptocur
pun
beat
lose
enjoyed
mercedes
##cer
usa
grand
americans
mut
##light
##ived
sever
lots
target
sand
growing
longer
director
##egal
##nd
skull
partic
acr
econ
pet
sky
##den
clos
terror
south
##kk
##esh
cant
product
data
dom
##bop
##hood
##erv
total
sleep
mist
storm
brill
latest
africa
information
obs
##iop
##view
webs
sugg
bud
stra
sometimes
entertain
##ral
##ission
content
fund
gam
gov
victory
suggest
mode
wolverine
bur
proud
actors
gh
##aff
##aining
conv
blowing
favourite
straight
14
wife
bey
##tf
parents
eat
decision
platform
log
benef
##iny
##ented
countries
sant
crime
pu
##oll
photo
haha
##ief
dollar
ang
spo
services
##wise
##utes
front
scott
feat
service
fur
written
extrem
##ns
##ops
##angu
nftcommunity
charles
ridic
##por
kinda
interested
couple
died
##uation
##ails
symbol
fit
remind
classic
##ky
##lled
##lex
dragon
press
sold
feeling
crossed
##bon
floki
cowboy
asteroid
##ands
##ization
marvelcomics
russ
##rated
coff
cares
musical
narnia
violence
##uel
road
biggest
college
sam
##oop
disg
acting
opense
ethiop
##par
comet
##emic
europe
##iple
cs
nope
brilliant
catch
danger
facelo
##anda
trash
convers
##ague
rap
comments
scient
marketing
##ecess
medical
spacex
007
fol
##arty
##aughter
jesus
across
##enn
suff
##osp
republic
speed
political
##ography
canada
voice
##fest
##ilt
intr
dcc
##une
##loy
normal
page
vax
##oring
mental
16
touch
hair
broken
vom
spot
flag
bullshit
current
street
bice
prison
including
variant
cake
fiction
hy
##fic
waste
problems
regard
40
##pm
massive
##ww
##ba
pray
crim
biceps
##game
##ank
##lect
racing
sparkling
rand
##aft
morning
ger
##ayhome
##usion
running
majority
flexed
channel
screen
dccomics
whether
lets
phil
dogecoin
website
##21
##ivities
turned
rule
math
ut
##ows
spend
##aud
beyond
ridiculous
army
disagree
24
##appen
##ai
##orrow
lying
nah
sort
vaccines
daily
incredible
cinem
##wom
pred
vaccinated
virus
##ulet
contract
##allen
##ortunity
compan
earn
general
repres
ven
##ership
worry
opportunity
##aught
bye
##aged
wind
wtf
##ract
##down
##bc
agath
holly
tomorrow
freed
education
crew
##ams
tex
realize
compet
btc
breat
##with
##ered
hawkey
##res
##using
brother
ain
conn
screaming
spidermannow
girls
queen
actor
21
style
basically
revol
hogwarts
lack
mother
sou
within
building
santa
##cing
##ips
##iversary
##party
##arm
following
tweets
questions
fully
facer
nazar
coffee
bs
push
##ius
##otion
amulet
drive
wrote
popular
proc
##itted
potential
mission
happening
global
vot
doc
meant
##ibility
laws
large
camer
publ
##stappen
organ
intell
##izing
flushed
played
finished
humans
ner
sav
greatest
slow
binary
unfortun
##uh
guns
##mark
##xic
funk
battle
deserved
narr
dollars
mate
ny
rate
otherwise
decided
weeks
raised
bunch
cart
mart
##rele
##illy
##ivid
quality
easily
appreciate
wer
env
quarter
desp
currently
recomm
mel
relig
fighting
cit
##escent
thous
crap
holders
type
vomiting
##fi
##antly
opt
extreme
##onse
lies
##usting
capital
credit
##ev
##ining
##ival
prem
position
companies
tast
masks
daniel
cgi
date
##let
ther
neg
bott
awful
speaking
##ob
shang
appar
langu
yours
cold
student
excell
##tw
towards
##lewis
brought
breaking
note
appear
blog
##nov
spikeinu
##ires
meaning
shorts
official
source
nons
##bull
moder
present
father
anx
impact
confir
texas
often
univers
finish
hosp
##uz
##iod
susp
spaces
loans
felt
visit
reach
##ida
##itty
weekend
electric
access
##ophy
##ience
thinks
crescent
attempt
sunday
rare
tired
spir
becom
politic
tow
itself
proof
concept
prov
hopefully
pract
kindle
lego
culture
lady
beast
pull
##vant
response
pounds
rab
sum
blame
similar
value
austr
pack
##orian
##acing
likes
deg
##toh
situation
numb
wear
##dom
deliver
hollywood
clean
gives
##inions
##enty
changes
humanity
dot
##ocr
innov
bebop
##chain
focus
internet
destroyed
silver
circle
subsidies
theat
##orman
crown
period
tonight
##anu
##aly
stick
stream
##eeee
trade
lovely
feed
angry
weren
##dog
##how
##icks
phone
extra
tat
##dy
##ushing
bitch
thoughts
forgot
galaxyheroes
transphobic
involved
cryptocurr
hawkeye
eb
mostly
ending
performan
civ
##uction
unique
exclusive
charge
step
certainly
dislike
opinions
minutes
fill
hus
##ration
shar
ways
physical
##stud
diffic
locked
difficult
##uing
loan
##ability
selling
board
verstappen
ghc
##tohogwarts
bought
##haps
hasn
perhaps
ben
##ram
##house
##ony
decent
##enced
afford
dav
mic
ring
##ooo
notice
plot
##ogy
##odes
production
technology
google
##lim
sharing
##andfest
upd
british
nonsense
fed
##night
listed
##andfestivities
fool
hig
##fr
recover
friday
btw
volt
garb
surprised
##verage
prove
india
numbers
##nal
genu
private
concern
corrupt
agreed
div
##iron
career
lucky
excellent
austral
##andfestivitiesparty
daughter
##ka
reviews
0x
hid
##ises
alive
changing
playto
femin
garbage
playtoearn
starting
winning
george
conversation
citiz
##iety
##outing
teach
##cri
budget
##weet
positive
message
freedom
apparently
bal
##bers
buff
biological
horrible
higher
genuine
nom
usually
knowing
polic
subscrib
multiple
disappoint
false
##mber
##ators
##alf
##ondon
##ances
protest
returntohogwarts
sucks
critic
fingers
2nd
doo
rain
court
achie
process
yellow
below
legit
illegal
democrats
turkey
unfortunately
##band
##oles
drug
strange
individ
hurt
scenes
sup
personally
accord
sexual
mater
announ
tb
wild
##stone
door
ground
cancel
further
opensea
ethiopia
ice
##achrist
retweet
shibaf
affect
disgusting
fat
##ogn
putting
inspir
language
oil
tour
##str
nove
followed
comicbooks
pandemic
cust
##mus
##ault
##za
##inity
challen
neither
trad
superman
copy
adaptation
rat
##ese
##acon
guard
##ahah
##eal
##edi
everybody
flor
cand
pink
##irt
mob
alt
program
buying
episodes
sports
agathachrist
voltage
##omy
##urity
##onday
insult
199
##aaaa
fault
london
occ
round
van
witch
robb
arc
looked
feels
corpor
horror
mir
##ress
washing
carry
feast
heroes
##load
scr
contact
throw
famil
inside
spidermannowayhome
crash
##icted
identity
pathetic
jf
##rass
chi
##uses
poll
progr
helps
##doge
folks
##unk
spent
stars
embar
object
avoid
ahead
introd
connect
civil
##studios
ped
##lew
weap
camera
individual
led
##uct
##cat
##istics
enc
wrapped
politics
wallet
##car
##iment
missing
views
faith
recommend
cryptocurrency
material
##me
##eng
andrew
island
loves
moving
indeed
reasons
doxxed
hospital
ebay
agathachristie
nut
orange
click
##aves
purp
virt
obvious
according
icon
##arch
bigot
##itary
discover
environ
60
etern
plenty
assum
yep
broke
powerful
romance
streaming
chart
built
insane
random
fist
hen
##ray
##fa
reve
fort
pls
successful
rabbit
hilar
jump
sen
wiz
##ued
##watch
third
heav
jobs
drivers
recogn
effort
boys
##ript
fasc
shibafloki
fuel
hang
script
holy
glowing
hoping
tim
##sex
imo
##ole
##ha
##isions
train
ideas
profit
walk
cslewis
necess
##wr
interview
speech
represent
weak
followers
legend
##medi
bbc
##mar
notes
##ills
##ustry
confused
behav
rh
above
legal
photos
narrative
kar
ist
web
trial
##bert
complain
piss
##rd
##ost
helping
cheap
hypocr
embarrass
##ively
ended
epic
cas
ken
pure
##ria
##ey
##lin
shock
myst
alth
captain
dangerous
modern
kick
##nn
##amilton
grim
quote
supporting
environment
bed
yr
##ds
employ
diam
husband
australia
mint
west
videos
performance
##cul
##ung
comedy
immedi
wins
income
horns
##box
holidays
major
several
tall
princ
abuse
activ
##ickens
industry
local
##list
##sec
helped
##quid
strug
apolog
german
custom
mix
extremely
ult
cho
load
poster
beginning
mach
tear
##time
##aire
##iger
print
relations
anxiety
ry
##ament
felon
decades
##ipping
cosplay
22
gaming
ten
##iest
##idge
chem
troll
among
respond
deserves
ignore
feastandfestivitiesparty
vib
##nes
##asure
##ocol
oppos
nation
ran
wheel
##ement
2020
contrib
nature
thousands
cook
san
##owers
blind
russia
jer
##aig
##fort
investig
although
80
bacon
prices
statement
spoil
base
##jo
bell
chris
##imet
married
study
nftcollector
##itude
##olf
spect
##endar
screw
details
november
hilarious
era
ky
##94
##acher
##aling
yea
flash
killing
david
purpose
lion
national
##rom
##ino
##unt
comb
became
##ature
##lier
intellig
wand
##life
##ica
forced
##und
##ula
##world
natural
solana
telegram
florida
diamond
##atory
##umbl
bother
##drop
barack
shoot
despite
coun
##yd
##hic
hall
worried
arm
saved
writer
fellow
jfk
oper
##right
##etongue
##andwith
emotion
recently
taste
bon
woo
##ork
##lla
##etch
leaf
posted
sony
increasing
judge
23
sending
##rr
##ifi
smir
harm
thrill
idk
security
highly
1000
##mil
##dickens
##agram
driving
cases
hul
tough
##head
##ofth
halo
military
model
istandwith
cash
##ishamilton
contro
understanding
purch
huh
meme
profession
biology
till
waving
##ham
##ication
##illa
nov
definition
park
wing
soft
##ples
##odie
harass
##awn
defend
songs
healthy
celebrate
failed
charlesdickens
bes
hmm
##su
##￣￣
##ored
inn
##bby
subject
spirit
smirking
vo
##inge
joker
carbon
holding
##rop
##urch
prime
##ristmas
stopped
famous
population
##otten
audience
flying
tbh
washington
grimacing
##ws
weary
scam
writingcommunity
relationship
nu
pig
inu
manip
carol
offer
gamefi
races
##ipped
admit
##imetodie
bern
##bre
shad
area
loving
budd
flu
presale
demand
threats
regardless
esc
nause
chap
decisions
yester
ray
util
height
upon
fox
didnt
homeless
damage
kept
suprem
##isis
wearing
goat
admin
soul
##hab
##alorian
rewards
ship
chat
code
surely
ethere
##ossible
nerd
yesterday
accur
boom
198
marvelstudios
bigger
ends
leader
threaten
politicians
iconic
##2e
notimetodie
fresh
agend
actions
strate
histor
yo
##pend
##inary
##eez
##ateful
##bey
winter
solar
squid
passed
jail
jedi
lg
tech
##egr
##ifying
provid
image
billions
empire
dying
match
##19
somehow
exciting
kevin
edition
apart
snowfl
provide
ethereum
ms
separ
defense
seasons
deaths
##2021
considering
responsible
500
90
average
deter
staff
church
winner
basic
##riage
gain
wed
##erc
##erg
aware
impossible
generation
options
disappointed
3rd
lm
tg
shall
neut
upside
scar
##hhhh
ridley
##eral
trou
meg
infr
##raid
propag
miles
penal
autom
bio
##a6
store
faceensive
disgr
twitch
assault
democracy
##xx
##apan
argue
journal
jab
tor
##ror
##lie
##iced
whats
keeps
sadly
moron
pile
##aign
##aging
twice
glass
recent
listening
inspired
du
lower
males
tf
##rib
##cast
##bf
cloud
afraid
##umps
ignorant
nearly
particular
pouting
rapt
##well
##50
willing
knight
club
decide
supply
##room
added
square
jkr
cinema
immediately
band
din
##ikes
##can
##eek
intern
entertainment
##lewishamilton
goose
##aced
clar
##plus
commer
investment
degree
diz
##cap
##itution
tol
rog
terms
independ
cancelled
limited
auction
lay
odd
tem
vac
##pet
##sey
##astruct
anniversary
bare
##vert
chose
consp
possibly
faceected
mentioned
north
jul
##girl
marriage
##aha
keeping
studios
dropped
campaign
mistake
70
rape
##icated
leaving
##ension
##feld
calif
considered
nauseated
thor
ange
##istry
somewhere
assume
excuse
advice
villain
negative
infrastruct
disgrace
cuz
lind
silly
xr
##ext
##10
##itation
gobl
earlier
animated
journey
citizens
jon
##itar
item
poet
##abl
drink
compared
seconds
bow
poo
wake
league
grab
quit
prep
describ
identify
caught
wes
##wal
weight
trophy
goal
alb
##iff
intersex
##els
relie
colon
profile
inflation
losing
##dogecoin
agenda
table
ug
##aching
##ids
##sequ
places
braz
text
starship
projects
circ
##limited
mystery
californ
rings
##fig
roll
grad
videog
members
standing
johnson
families
sar
##ox
##gs
##eries
toys
##icious
##uted
faceert
##ivity
flat
award
perform
entit
pitbull
snowflake
dizzy
boss
sister
##rot
##just
toy
##icking
somebody
##appy
include
govt
infrastructure
dart
japan
##note
everywhere
discord
minute
##elle
magical
sympt
##woman
lear
##ashing
loss
##aires
matters
idiots
conditions
benefit
##ength
jim
option
pin
##oen
##iet
##gu
##igr
solid
specific
##force
conspir
hp
sac
##da
##change
marg
grateful
flight
##ancy
bringing
annoy
former
football
tickets
criminal
tatongue
henry
california
3d
ron
##gender
toxic
##love
##aker
##ibles
signed
monkey
paul
pushing
##mc
events
posting
balloon
silverstone
wings
bemil
brown
teen
lights
congress
merc
valid
bscge
astron
savoring
istandwithlewishamilton
five
nic
vision
xmas
##arant
faceay
unlike
##venmo
twist
drama
vehic
americas
blockchain
dearvenmo
privile
debate
##ners
##aver
##hop
trip
##aine
##place
parts
genius
##board
drawing
faceloding
##gon
capt
remove
logic
##twitter
learning
dy
wo
faceerienced
adventure
terrorist
shares
mal
named
oct
##val
##ords
infect
corner
conserv
equal
booster
commercial
hous
##aries
##istan
##cket
##lock
anywhere
feelings
meth
origin
received
##wap
##vil
##sters
handle
rockets
teams
walking
dreams
previous
finger
published
religion
ratio
wizard
determ
##fact
theory
context
bills
sales
martin
##yth
##irty
switch
giveaway
startup
infinity
creative
##others
banknote
radio
achieve
bath
pensive
zany
##bust
##zos
orbit
##ghan
coins
exam
sketch
accom
##kien
ruined
disneyplus
binance
symbols
golf
kyle
monday
rt
um
##gre
##aster
liquid
clue
arts
horse
brazil
gate
ox
ze
##mission
##war
##bow
##aled
rey
reven
##lying
qual
##ground
related
regular
##quel
laps
bottom
innoc
field
wide
##ilty
spending
upset
smo
bruh
floyd
##dden
surprise
revolving
genuinely
relieved
rip
site
tyr
##cious
station
##ilities
##erson
##craft
older
schools
statistics
require
robin
utter
besides
bernie
lgbt
lmfa
##bor
exec
host
##ashion
increase
eternals
kate
stun
##iles
trig
doesnt
warm
illustr
rogue
lic
##ban
tool
##ader
roy
unre
compar
##ussy
directly
demon
prevent
funko
hulk
gooseb
##ees
##22
##ays
sudden
scale
terf
minority
hung
election
pictures
aston
liberal
##cription
tradition
propaganda
##ette
##otes
spki
consequ
##ifically
topic
easier
caused
document
guardians
ack
##nft
##vation
##otyp
integr
charity
##token
students
##oooooooo
detect
town
mobile
heavy
poetry
lapped
powers
tag
fraud
donate
##aked
percent
complex
batter
##tevil
claus
luke
fixed
goosebumps
##lor
##ders
##att
##aser
##under
unl
mary
cock
overt
evol
legends
faceeriment
assignments
machine
accurate
strategy
tolkien
##imin
ability
##emy
graph
##soci
advant
beauty
##67
##30
##infeld
##stream
shots
saving
newrele
hole
member
quickly
faceress
fer
##vent
lived
cancer
exerc
scot
pretend
fanart
younger
begin
african
faster
christianity
robbed
virtual
gorge
wink
##port
##care
held
guilty
showed
desper
accident
moments
opposite
eag
scared
##ipe
decor
alex
cell
egg
na
##ench
##kept
blade
dress
gotten
bob
results
utility
ltevil
poly
upcoming
arch
crack
century
##ursday
competition
dar
pill
sain
##field
##ested
knock
##ogo
adam
network
tells
surg
curious
cartoon
symptoms
cards
rise
sin
##mart
##lation
incoming
grav
appl
##hole
audio
eventually
venom
##musk
neutral
entitled
gorgeous
bang
ded
dict
fashion
hood
hide
voting
##rict
##fan
anal
spide
comfort
artwork
starts
honor
improve
searchn
establ
corruption
becoming
subscribe
progress
choices
ffs
pm
soooo
uh
##otography
bear
##ione
shitty
pron
##ander
uses
##agon
crimes
compare
billionaire
newrelease
searchncollect
bible
size
##say
##edia
ash
asia
suic
manage
signific
talent
tsla
influenc
cup
oliver
##orter
##oos
gross
crow
theaters
germany
album
fu
osc
##han
##aco
##eted
sea
##emoon
clim
sake
craig
intention
##iana
##rupt
solve
digitalart
particip
confirmed
doocy
conspiracy
giant
p2e
sitting
tobey
chec
defending
##ashed
bird
##uesday
movement
canceled
shooting
ryan
hes
ride
sides
ty
react
chines
co2
plans
letter
##shib
finding
100x
##bble
blocked
survive
challenge
acknow
##keptical
dut
eh
fi
##cal
##erry
##ari
prior
depr
sem
exists
blow
everyday
herm
##oda
readers
harder
insur
197
chemistry
rum
##cos
##fo
spy
aggr
grin
##ago
attract
ruin
existence
luc
republicans
corporate
trouble
##ython
rig
yall
##pool
##lan
##lland
##entially
trading
altern
merry
launched
learned
adults
embarrassing
buddy
trigger
hill
piz
sate
six
prince
neigh
associ
crisis
medic
minim
incredibly
jean
philos
##anuary
rainbow
manipul
spidey
300
kr
mort
names
python
##ule
##uous
tok
##stal
##utions
chill
smile
##ogyn
ada
players
belong
##anced
syn
grey
##ruction
busy
calendar
perfectly
kingdom
petty
update
chinese
ltr
pf
wood
yup
##aven
##atives
reb
underrated
instagram
arguing
preview
credits
nftcollectors
ltrbt
26
sens
score
##ception
specifically
turns
##ieces
violent
economy
closed
recovery
##carol
independent
gand
january
mans
mount
##fw
butter
##ceed
##news
artists
posts
##hold
##ggy
animation
raptor
les
wise
##97
##itis
sean
dise
##prom
bottle
comput
solution
casting
nomore
astronaut
az
wit
##star
trending
scary
kindly
196
##hhh
engines
picked
treated
innovating
necessary
western
advantage
cream
gang
lun
lines
tun
veter
##inn
spl
##izer
elonmusk
magn
irrele
federal
professional
dial
fest
hack
ri
rates
tiger
##83
##ita
fore
##che
wanting
veve
##ugs
sexy
leading
costs
hahaha
removed
ugly
dip
lif
##asty
grou
guarant
formula
forgotten
##pective
becomes
encour
administ
satell
sect
##11
##arily
##ste
seinfeld
cringe
apply
player
opening
entirely
golden
domin
##women
breath
dirty
tory
vul
##met
##ores
##acle
##lection
tril
bright
grace
killer
mrs
creating
comicbook
claims
celebrity
failure
lmfao
hook
rating
tik
##pin
##kn
##kind
anybody
exchange
appeal
letting
enjoying
minds
replace
approach
pronoun
bod
nose
disli
guide
resour
straw
fucked
treatment
##uit
##eed
##ov
thursday
init
reaction
stage
##ooper
shirt
brings
herself
magnet
direction
frank
trees
sentence
impressive
required
crimin
galaxyheroescoin
weapon
barely
liquidity
irrelevant
fab
htt
reward
shown
brave
reduce
overrated
fell
transgender
##athy
studies
relevant
addition
leaders
##ification
##clear
##ittenhouse
victims
pupp
scientists
lindsay
dun
lan
pap
ren
tiny
wave
##sa
##ili
logan
##actic
##ishment
matt
consist
property
influence
altcoin
woozy
separate
sacr
cate
eating
roles
wishing
##lift
##gin
##ze
##rection
dex
peggy
bridge
discr
useless
##ancial
hurry
constantly
labour
stunning
38
aka
nick
##ja
##otic
italy
chain
##ches
whose
financial
misogyn
ignorance
policy
chapter
##city
##auth
atm
loki
display
overall
jeff
nyc
innocent
groups
gm
tons
xx
##bed
##uments
manu
##mov
commission
humor
planning
##phone
faceectations
attacks
entertaining
summer
mech
tu
##bur
##ona
weather
grant
20th
calls
isnt
broad
hunger
incident
babies
colour
gifts
included
##etti
cyber
eyebr
receive
33
va
##piece
##fast
##ym
##gling
beating
heaven
ens
handed
dram
starl
consum
shibarmy
promote
figures
england
satur
hype
35
jan
tay
##iam
liar
robert
##antic
proven
##berg
thankful
minor
##ofx
johnny
salvation
turning
dmv
falcon
##busters
##ford
##lines
##ya
##bi
##hum
##26
##eness
sequel
agent
##ighter
highway
wishes
edit
healthcare
falling
closer
concerned
inspiration
shadow
surgery
dare
dave
jew
##nt
thom
toilet
chic
##los
marry
##issa
talks
##tok
continues
multiverse
convicted
##ropri
ade
cree
cmc
ju
yess
##pg
##hol
##inform
hallow
span
##quad
##ensh
phoen
##nyder
##rowling
##yyyy
brandon
burning
##respect
penalty
trilogy
lt
lazy
rice
##ario
usual
clash
workers
bored
complaining
hateful
produce
pressure
therap
announce
##umbled
emotional
purchase
consequences
manufact
ns
punch
##pe
##here
##atically
##oted
liz
##ogue
##ssss
dogs
lawy
essays
reflect
depends
##anniversary
international
vacation
annoying
28
jen
nurs
→→
##fam
stuck
##arditis
plz
retro
popc
wondering
advoc
midnight
billionaires
##evil
counter
ian
##bd
##bro
##asm
rewatch
actress
interp
harrypotter20
throughout
##while
titles
unfair
loser
hidden
introduce
behavior
phoenix
36
pc
##mit
##fiction
##hor
##happy
##inger
##atar
##stand
##thanniversary
spin
outcome
moved
buck
feet
##drops
##works
females
oppr
promise
businesses
michelle
daddy
referring
responsibility
voted
cav
dump
dines
oce
##rix
##fu
##des
##ania
libr
trait
##aks
advert
afghan
remake
heads
hundreds
##track
tony
sleeping
designed
cycl
##uuuu
mandalorian
properly
yrs
dim
rittenhouse
##kers
shared
alot
outr
sait
crush
plays
remain
merch
leadership
gifted
refuse
condition
nuclear
tokens
honey
theb
##americ
chrom
##ifer
nftg
basis
talked
effective
richard
destroying
scientific
drugs
integrity
dinesh
90s
iv
##gar
trick
realise
commit
ghostbusters
writerslift
faceression
##walker
accompl
lifet
gig
hated
jess
ram
##you
##rees
doom
myoc
alright
adop
nftbooks
fights
hearing
visual
subst
authors
##kkkk
melissa
pizza
mechan
east
wis
##enders
theme
##issions
decade
pretending
raise
clover
creator
testing
breakfast
constitution
lockdown
republican
predict
historical
gravity
administration
categ
dyn
ip
##een
##reh
##ask
ree
##oli
trib
clip
parties
friendly
magaz
directors
devil
includes
panic
eyebrow
jam
ol
##asion
shield
chick
noticed
disrespect
herof
teacher
##ocal
effic
nuts
videogame
der
pieces
##mor
##1e
##lement
##universe
##ainu
marve
seat
select
assist
hobb
genre
slave
glenn
parent
polygon
harrypotter20thanniversary
myocarditis
herofloki
29
##py
##hi
active
background
guest
funding
potus
legacy
warning
liftoff
university
filled
balance
princess
saturday
jones
pussy
##har
##2d
reject
##iring
evening
talented
empt
supports
setting
ape
answers
claiming
##bye
protection
products
suspect
intelligent
items
gandalf
criminals
chromos
75
youre
##sell
##search
facebook
alarm
unv
poke
brothers
##ailed
download
repe
childhood
relax
passion
standard
destiny
painting
achristmas
gop
tuesday
yay
##tv
##ware
##rey
pra
##ustain
trag
marst
partner
##izes
highlight
ideology
studio
##angel
castle
typical
request
escape
oscar
lil
rent
##iar
beer
reun
cha
unn
unam
march
therefore
##ftime
scifi
listing
steph
currency
calm
facing
levels
murdered
##nesday
##avery
suicide
dared
md
##sy
##iding
mexic
ages
quiz
remains
border
clock
soundtrack
advance
urban
reported
practice
scotland
hr
mcc
##rum
heat
stan
##imately
jokes
strength
highest
regulations
confetti
limit
doxx
villains
weapons
##ofthegal
nsfw
achristmascarol
marstogo
bun
hire
hbo
rn
til
onto
oncoming
convin
freaking
cops
covered
animal
reference
nftartist
motiv
mixed
##habi
##figures
satellite
altcoins
lifetime
45
gest
##anft
##esa
mega
abu
grown
##osen
resident
appropri
worldw
##lesc
collab
emma
profits
peaceful
##ofthegalaxy
divers
porn
vast
york
##old
shout
dod
##ifest
whoever
transition
repeat
courage
runner
steve
delusion
balls
goblin
disease
chicago
01
ath
gir
x1
##aur
##yl
##ura
prim
ros
donations
##loved
elton
##oys
holland
##ofther
incor
acad
##ronic
##photography
accepted
penis
aliens
bloody
universal
criticism
tiktok
gent
lh
oz
sis
##ado
chosen
training
amb
##ager
goodbye
##plf
profess
marketplace
faceeriences
construct
jackson
replies
economics
reminds
appearance
kindleun
exercise
aim
darth
fish
hence
mac
##sd
thus
anyways
plant
perspective
meanwhile
understood
2016
worthy
depart
center
mutant
scroo
thriller
dinner
guardiansofthegalaxy
##nasa
##erve
donald
telesc
##ishop
checked
suppose
corby
asknasa
earned
confl
memories
keycap
portray
suffering
behavi
controvers
gradu
jason
tale
tires
tplf
##ae
##eros
anth
##omes
stated
truck
happiness
##assy
asshole
defi
hardly
boris
stands
democrat
masterpiece
palms
mutants
revolution
##itarian
privilege
crowd
taylor
popcorn
core
##witter
##25
##isf
##isy
meas
alter
##loc
cloth
monster
indie
blessed
officer
critical
homes
teachers
arcane
dislikes
##umbledore
dies
fau
wip
##oom
##face
##bing
##orable
##icate
stere
##pper
peoples
brad
##agan
impl
imper
personality
fired
filter
compreh
monoc
edge
systems
appreciated
mandates
benefits
hermione
marvell
unamused
kindleunlimited
corbyn
lee
##95
##ening
inher
whom
##ston
stats
grade
payment
transwomen
stress
strikes
wont
flaw
kidding
steam
memes
facelained
burned
robot
spreading
econom
utc
##ogyny
buffdogecoin
fortn
interpret
magazine
27
rough
##uc
##vable
inj
beloved
##alous
pod
concl
proved
serve
owned
governments
ps5
##ysis
##phere
shameless
meeting
faceayers
daredevil
dhabi
tac
##tz
##23
##itals
infer
##idency
chuck
##ola
##eme
whenever
greater
##ached
##encies
evangel
retire
##ossil
keanu
images
directed
generally
deadpool
democratic
hitler
wolf
ignoring
telev
hatred
funkop
##cript
afghanistan
empty
monocle
fossil
horm
mike
som
##hake
##24
##eelo
smell
proving
throwing
##angers
reasonable
illeg
misogyny
faceecting
2019
developed
shopping
liberals
computer
stereotyp
aaa
ga
jet
mj
og
wil
##gen
stfu
goals
##ulate
dish
skills
phen
email
puts
cheers
jkrowling
confirm
assuming
angel
philosophy
lesb
nursing
ai
cats
dance
panc
rout
sustain
ted
##uk
##miss
##cry
##ustin
proves
clinking
blu
ads
redu
quiet
medal
function
##elon
babydoge
multi
immigr
haters
sleepy
suddenly
detective
dialogue
##eeloftime
es
hits
##aid
##fall
##omen
manifest
disp
retrot
gods
borrow
facelan
critics
auto
label
wealthy
rigged
thomas
eight
sau
##iere
##75
##recy
##asquad
whining
##states
myth
scream
glasses
presidents
##afett
fairly
arguments
jealous
apologize
lantern
48
bou
cities
han
kore
lame
loop
mum
tga
##oh
theater
youth
##char
liking
bruce
shel
starring
decl
boot
virgin
ukr
transphobia
##america
4th
cc
cure
nc
pad
##rewards
beach
french
worlds
define
owner
##201
##nold
animals
bnbrewards
canadian
funds
employees
whatsapp
vehicle
examples
witness
veterans
foreign
resources
unnecess
34
dum
ire
vint
wik
##fg
##witch
##icron
stal
aside
aspect
mage
##acks
unkn
##ables
usd
clint
blm
teresa
creators
launching
galactic
sucked
doctors
tsugasquad
##market
vibes
intelligence
comparison
evolution
desperate
dope
obl
ric
##roph
##inating
reign
reli
sham
foc
fees
struct
spell
cheat
delight
illness
safemoon
landing
paint
secrets
##friday
announced
individuals
conservative
ocean
worldwide
range
sab
##park
##kt
roger
mankind
##iber
blast
flow
##ront
adding
colors
standards
ceo
accounts
unitedstates
falls
speaks
educated
status
cryptocurrecy
breathing
bscgems
traditional
adele
marvelleg
69
gut
ig
zone
##point
##lets
##0f
##eday
incom
##ainted
smh
##ously
##berry
resist
schum
capable
steal
restrict
bias
attacked
articles
ironman
features
##￣￣￣￣
analysis
http
papers
discrim
bay
dv
dumbledore
ego
lou
nin
vag
##ef
##34
##erable
ine
##leg
rebo
roast
justify
intent
handshake
transform
##worth
moral
barry
mentally
reminder
votes
kyc
wednesday
japanese
illustration
documentary
bodies
chromosomes
pokemon
doxxing
diversity
scrooge
telescope
4k
bul
bout
hates
vamp
##eds
##icit
##ophob
##ecl
##urd
suc
allowing
frustr
logo
seek
tea
served
##encing
badly
##robe
##elin
legis
grew
warri
steps
delete
publicly
boyc
invested
faces
protecting
severe
commercials
aggressive
##stein
ax
hitting
rar
##ye
##die
faceosed
lied
prize
amen
arms
##emption
managed
clone
##bel
##roll
blacks
slavery
mini
friendship
foundation
tests
promoting
calcul
deny
feature
lgbtq
unlap
##shiba
pfizer
sacrif
atmos
behaviour
unknown
mild
nasty
##lest
##78
##ala
pride
promet
trillion
myster
grid
nowhere
owe
##print
presidency
terfs
superior
banned
memory
transport
causing
spoken
theres
##writing
xrp
evangelical
marvellegends
hating
nations
##ros
##paper
##bid
##base
##bour
##12
##oration
face0
alph
poison
manga
swear
swap
driven
nftdrop
##sof
pays
thru
committed
literature
collectible
favorites
proph
causes
cycle
obsessed
intellect
bottas
introdu
zepp
minimum
##author
##oftherings
professor
ii
tam
tking
##pad
##oa
##iers
##hs
##ano
##isher
whil
areas
moore
alert
uns
##iveaway
exiting
tezos
##ipedia
intended
##quet
indian
planned
regret
2018
immunity
engineering
disappear
##annon
russian
harassment
ireland
fue
gains
pix
rus
sets
yoda
##ients
##fire
##vest
cham
##andon
sequ
coach
cru
hadn
quotes
transl
##pro
tweeting
stewards
##heus
distrib
cultural
streets
cisla
taller
bonus
fortnite
wikipedia
focused
prometheus
laz
##fly
##hib
##anny
##otions
##ille
asap
asian
trend
mail
pocket
enemy
drool
##oured
elf
##azz
##ccoli
charged
##rooms
finance
useful
sexist
confusing
squad
misinform
kissing
patri
volume
airdrop
adaptations
novels
survival
organization
struggling
method
therapy
tend
##raction
##po
##fil
##sale
##15
##zen
revel
##idow
faceand
##urt
mock
seemed
blat
prec
##cient
invite
##atson
runs
rubb
dropping
existing
traum
traff
attacking
dumbass
hahahah
simplylove
boost
suffer
mirror
revealed
ultimate
investigate
threatening
cyclops
atmosphere
ell
nav
pip
pool
pushed
rib
tune
##don
##order
inject
##station
stol
faceos
##ortion
ourselves
##cru
charging
remote
supported
hunter
weekly
##whel
stupidity
omicron
activists
battery
funkopop
zeppelin
whilst
simplylovely
austin
dating
fought
##over
##ses
##acity
##eee
fred
##gem
uncle
poem
goodness
intim
contest
hollow
beliefs
##aphone
f1xed
authority
audit
types
celebrating
constant
officially
silent
communist
television
phenomen
stolen
gp
gor
lit
mere
mood
sooo
##cut
##ket
##44
##idate
healing
##sem
##christmas
butt
spring
dems
anytime
blaming
##lipp
##achel
stopping
storyline
joined
protocol
hurts
couples
justicefor
sources
location
scenario
mistakes
vaxxed
##music
screwed
influencer
cavill
saitama
delusional
eg
gif
loose
##xual
##itable
##isation
sheep
memo
peak
thanos
bros
acts
flop
careful
entry
convince
solanaair
megaphone
ble
tainted
zomb
##mers
##pan
##repr
##asley
##chi
##thew
##ctions
defe
swords
##owning
firearm
resol
christians
##ordan
emerg
install
engage
ordered
britain
ticket
religious
hiding
##justice
triggered
outrage
aid
wine
##iams
##70
##99
choos
orb
craft
skill
pleasure
believes
popping
possession
passing
continued
costume
statue
satisf
reporting
##iiii
fictional
capitalism
premier
pulled
theatre
policies
connection
ashamed
astronauts
reeves
facelanation
unnecessary
succeed
kim
pants
sly
##mp
##put
##orters
##stru
ford
chief
##ched
spa
union
disaster
##belie
strike
interact
compass
factor
##airs
element
returns
trek
larger
nazi
ladies
hyper
inspiring
fellowship
vulner
dynam
55
biz
rb
##munity
##oons
##wall
toto
##rel
##uting
##ogen
##udes
phase
mascul
facelore
halen
stayed
investing
biased
subscription
tested
elected
stronger
speaker
coward
folk
variants
window
circum
significant
magneto
##movie
fame
ku
lp
lapt
mv
taught
ww
ward
xd
zeros
##mi
##oci
##nament
##wing
##↓↓
##iser
whites
spons
maint
sees
blank
handsome
##apper
raven
warming
produced
leads
freak
commentary
nftartists
regarding
struggle
encourage
library
incorrect
##parker
65
pil
rider
tie
tab
umm
##oes
##nie
##gia
##3de
##stop
staking
stole
##olana
##umes
##ained
##emes
exams
caring
##lied
charlie
desert
owners
simpl
metal
literal
batt
solo
links
producer
guessing
##lander
exception
lordoftherings
bankrupt
european
delivery
citizen
pollution
pedoph
marginal
gentle
bouquet
ukraine
drooling
laptop
80s
bait
eu
ebook
fand
jane
mi
pete
rude
rising
xbox
##wan
##64
thin
##atter
onf
ups
proced
blur
payton
realized
emotions
matrix
legally
wasnt
delay
equality
ignored
nftcollection
motor
peterparker
royal
dutch
guarantee
pronouns
lawyer
##standing
chaos
bount
hint
jenn
lone
pier
##riend
##inations
##llll
##ira
dose
##estic
orders
##ifies
prosec
brief
redbull
helpful
beings
discount
putin
glor
dogelon
##iveness
breaks
claimed
multip
brainw
trech
central
adventures
thousand
candy
vibe
##family
category
conflict
##nolds
vintage
bust
cough
eld
goooo
##ok
##father
onlin
chocol
amend
leon
leaves
themand
bubble
offensive
pregn
##iance
phant
finishing
menstru
believing
racists
##bra
shibelon
absurd
##bob
imagination
existed
2017
various
estate
surviv
delivering
##946
sarc
pitbulltoken
checking
nftgiveaway
db
sack
##ca
##cons
##77
##games
##483
##inct
##icing
heck
amc
atl
##abled
##asts
##akers
##orts
blah
gram
resc
appears
dece
##bling
presents
belief
filming
farce
register
creation
trec
debut
replying
gambit
extraord
0x0f
feminist
customers
bscgem
houses
wizarding
##67c
reunion
discrimination
fart
hm
##pay
##bu
##irot
##ulated
##bled
desire
##onsolana
invent
invented
posters
brex
drops
acceptable
milk
distance
officers
cosm
galaxyherocoin
growth
##000f
featuring
openseanft
exclusively
progressive
bigotry
recognize
karen
shocking
vold
housing
##greg
tyres
ferr
medicine
vulnerable
trechonsolana
bast
cable
duck
ive
kw
pound
pics
pages
rick
raw
##fin
##d201
##33
##etor
##ecbf
cherry
worship
drinking
##beecbf
emb
##accinated
broccoli
relative
singing
remembered
spotify
prayers
premium
discovery
reveal
##94483
##a61e
##a62d
##bf94483
describe
section
chicken
httpss
##3debf94483
themandalorian
##946a61e
0x0f3debf94483
##67c946a61e
##d20167c946a61e
##beecbfd20167c946a61e
##a62d000f
0x0f3debf94483beecbfd20167c946a61e
0x0f3debf94483beecbfd20167c946a61ea62d000f
bak
fif
kam
rated
##power
##fc
##80
##าร
##ena
##league
##aye
subt
spoke
map
frame
unlimited
plain
brav
nowayhome
backed
##plan
##lfriend
supertr
complicated
greet
species
possibility
generations
visa
approval
witcher
spectrum
mountain
riot
hormones
pancakes
rubbish
httpsskeptical
supertramp
dce
dune
gary
jordan
pair
wick
xtz
หาร
##oe
##hp
whale
alco
unbelie
covers
resign
thrown
assass
##hobe
mining
fanboy
insight
douche
babydogecoin
2015
figured
symp
##therin
approved
feminism
pissed
supremac
supremacy
vehicles
05
gather
hip
idr
jun
inner
reck
forcing
tro
comed
knife
users
##0000
##ounded
##ference
perman
infin
spacecraft
cork
invited
implement
covid19
avatar
regards
acqu
##aaa
propos
staying
opportun
billy
viewers
##inson
accepting
2000
denying
physics
representation
##calendar
mexico
girlfriend
alcohol
44
cab
lately
pitted
wa
wet
##pass
##oken
##aways
##vis
ancient
##ications
rein
##idians
forces
chore
sole
measure
sue
moves
elimin
pointless
thena
##uded
perpet
assets
##orders
emissions
##rael
barbar
delicious
blessings
largest
britney
arrog
liberty
spikeinuio
##strange
customer
halle
reynolds
graphic
comfortable
acknowledge
##horia
convinced
imperial
virginia
dna
dawn
ech
fee
gard
jr
kings
lam
native
##va
##29
##esis
##reet
##ada
frowning
pleas
chances
bestie
compens
godd
differently
horner
bully
deadly
150
shoes
educate
surprising
homophob
affected
minted
voices
particularly
license
neighbor
puppet
unvaccinated
circumst
idris
6th
bb
mouse
tack
##monday
##elling
##want
##areness
toler
steel
##aman
##kee
chronic
tries
##unte
unable
scum
actively
sheer
##izations
meditation
potentially
afterlife
##draw
##shot
recast
sung
clever
interests
elsewhere
masiout
worthless
latin
stocks
screensh
records
observ
roads
slowly
corporations
photoshop
hypocrite
hypocrisy
spoiler
performing
acknowled
insurance
split
schumacher
##ociety
chocolate
ba
cum
dry
ot
##mag
##pa
##ien
##ju
toss
##isons
##vey
sugar
##ongering
ord
unt
uncan
williams
smith
##emort
blues
teaching
overwhel
stranger
christie
muslim
whitelist
kinds
vaccination
destruction
statements
smaller
fastest
arrested
asteroids
vaxx
praying
affordable
necessarily
rhetor
hmmm
provided
faceerts
revenge
smoking
management
starlink
lizard
adopt
onlinecl
uncanny
oxt
yaw
thewh
shift
shorter
##ils
wash
suits
deals
heartbre
outf
pointed
##awa
funn
differences
attached
##ypse
creatives
restart
continuing
annual
narc
copies
volunte
depend
equally
erc
##oopy
martial
occup
shocked
percentage
overtake
eagle
hobbit
ribbon
solanaairdrops
fave
jere
rot
##mare
##clo
##fuck
##40
toward
##stones
stating
##them
canon
##emont
aged
themed
redemption
quant
##beat
charges
##ologist
polar
surr
##elly
meridians
bullsey
potterhead
frequ
poorly
patient
correctly
punishment
rapid
degrees
occur
hanging
prints
threatened
unreal
##human
halloween
jennifer
bullseye
bum
bound
nine
penc
river
zoom
##rah
##min
##ties
##oster
##iation
##cers
##18
##asp
spr
rocks
reads
fel
##crp
badass
fuckin
attend
cryptoart
fairy
viewing
fallen
detail
lux
updates
##alfoy
efforts
fascist
1000x
robinhood
restrictions
misinformation
gall
hott
sith
wre
##cake
##yi
##66
##38
##jack
##zilla
anger
beet
mod
seven
ariana
teaser
adorable
##aze
##cci
letters
##roid
maxim
awww
mrna
cheating
extended
##leep
##forms
romantic
boxes
bags
boosters
drawn
communities
venmo
premiere
heavily
providing
revenue
faceerimental
alternative
krak
##ocalypse
praise
dvd
sacrifice
extraordinary
brexit
gib
lunch
mp
tight
ugh
##yal
##bles
##anch
##uries
meh
##outs
smoke
cared
imd
starmer
elite
harley
supporters
owns
attitude
recy
##commmunity
duel
deliber
protected
penny
err
requires
deeply
logical
decentral
loads
participate
ratings
repeated
podium
slytherin
voldemort
trolling
bone
fb
gap
##gie
##URL
##ened
##isc
insec
faceURL
shipped
shannon
##verty
##cha
##uls
abandon
nostal
##ooks
posh
brains
dismiss
##avision
##craig
playstation
shibainu
hunting
contrad
editions
cheese
deleted
nightmare
##health
equival
distur
smarter
hyped
losers
debts
domestic
scientist
danielcraig
tatt
ultimately
combined
wandavision
journalist
prepared
faceayer
bathroom
dedicated
established
reboot
boycott
brainwashed
ferrari
thewheeloftime
pak
soo
sne
wat
##rison
##uable
##ointing
##kr
##boo
##bird
##jud
##inter
##inate
##irst
##urning
##oln
neil
wasted
alle
##essing
peach
poverty
enable
marsh
coven
cros
drunk
nftgame
transfer
slaves
characteristics
##ocre
minister
##ellar
warner
addis
miserable
holes
viral
promised
walked
developing
versions
depth
forgive
satan
irony
panther
rarely
##onym
discovered
claremont
climat
fabulous
creepy
appropriate
incompet
emergency
pancakeswap
31
dust
hb
hind
skeptical
##nership
##f1
##bk
##43
thel
##isa
##street
liby
##thr
##eem
frost
conqu
outlander
clin
timeline
newest
##lessly
sexes
tweeted
delta
began
coinc
skywalker
terrorists
funded
featured
butterfly
ensure
faceressionless
clothes
fauci
economic
ncbd
amendment
opportunities
creativesociety
400
cope
eve
hod
kish
riv
tort
##wick
shill
##child
wasting
unc
donating
joking
conven
user
hasbro
happily
partnership
gotham
serving
medi
signs
counts
greg
kills
opened
incent
cheaper
facelains
misunder
numer
values
faced
salary
impro
physically
panel
legitimate
octop
oxy
russell
compassion
jeremy
ooo
rachel
ss
snyder
vent
wdc
##mad
##esy
##itement
anne
##review
stood
##imp
##olic
org
und
outta
##agn
beth
##bebop
##udd
applied
##osexual
bitter
planets
leftist
singer
paperback
selfish
2014
listened
patients
labor
mainly
suffered
publish
originally
checks
tuned
misogynistic
chamber
ec
fits
faye
mile
neck
nwh
pup
sight
##ober
##front
##zel
##arma
##aya
stake
##igration
chord
mah
loyal
upgr
plastic
##odcast
appoint
flav
racial
linked
snake
snape
paran
lesson
holds
investors
promotion
socialist
2012
turtle
flex
immune
technically
disappointing
replaced
southern
##friend
occasion
carrying
legendary
msm
##fanart
associated
manipulated
fandom
bravo
53
88
ber
cath
hed
tx
tact
tip
xtwitter
##rait
##case
##bones
##vard
##aning
##anks
##ara
##acom
##etary
haun
frog
poc
##ivia
##aki
cod
arse
brut
ours
overl
##prod
awareness
superb
glve
maga
earning
##itchen
giftide
breathe
miracle
familiar
fascinating
hungry
insurrection
jessica
x1000
circumstances
ko
pir
rational
tories
yu
##nam
##vi
##60
##arian
##encrp
##icip
whit
neur
meets
##antasy
##indor
##kings
offers
owning
comparing
endgame
awards
believed
greedy
instit
industr
enjoyable
potatoes
snap
##uffle
salute
dealing
##heart
distract
silence
arrived
suggesting
agatha
achieved
jerry
golfing
cockt
intentionally
controversial
yawning
covenant
dull
goof
linc
length
ou
paw
wage
##iac
##ville
##orial
##rell
shite
##aded
##ila
##urally
france
depp
poirot
sword
drove
##ours
##ounding
##athan
owl
literary
collectibles
minded
releases
begging
blocking
shameful
blessing
impressed
roman
fundament
rapists
torped
julie
videogames
hungary
batteries
##cosplay
→→encrp
advertising
wisdom
lesbian
sustainable
legislation
95
bail
duh
ful
pace
rotten
yikes
##rick
##mouth
##tor
##lc
##vs
##90
##reg
##etr
bezos
##season
yourselves
melt
##arded
exha
grave
##agger
nowad
carried
buzz
##comp
##comic
blackfriday
await
idol
2024
greed
discussing
essentially
failing
error
platforms
prisoner
stephen
beetle
97
cnn
ja
jav
kitchen
mam
vice
##rant
##uary
##cil
##sm
##erly
##rek
##alism
##oops
shape
ships
##cher
fruit
##geon
unp
donation
coast
beta
##bell
bots
boba
##bridge
insist
##lands
apology
sonic
elections
situ
celebration
geor
cgc
normally
mainstream
removing
motion
picking
soldier
rapist
pushpin
politician
programs
senate
princip
contribute
parker
tfg
determined
virtualphotography
manifesting
zombie
bounty
poshmark
alleged
nowadays
46
bom
bush
cia
cens
gc
genders
nig
sinc
vp
vile
wi
wook
yum
##ex
##fans
##dict
##wen
thx
##anci
shap
asleep
meat
cann
frag
##aint
##ecture
swed
##wayne
elba
nftcommmunity
offered
mupp
christm
description
aww
factory
advanced
bullying
busd
refused
devs
admitted
importance
audited
cutting
celebrities
verse
risks
denial
condem
footage
optim
bothered
spiritual
relationships
wedding
astonished
stereotypes
structure
libya
lincoln
5th
ck
cass
cub
dor
gear
jar
laser
pets
torn
##hr
##erved
##atable
inch
inev
##ota
sher
shushing
##opher
##ryff
leo
carr
carn
quack
precious
crystal
harvard
##sss
##reading
deflect
phr
signal
tales
olds
boat
##poth
taxed
basket
sched
##ixon
actionfigures
ruining
reform
2013
answered
devices
facelaining
superheroes
arrest
hypoth
cooking
lightsab
october
initial
spanish
oppression
vampire
intellectual
revelation
rhetoric
narciss
##closet
57
cous
ears
fett
ooh
pies
##rod
##oot
##cles
##fre
##bag
##holes
##gate
##esth
##icity
heal
sty
forest
shaw
##usions
ross
josh
cliff
cruel
##ipes
prejud
##odo
harris
afterno
corn
humble
secure
babe
##umble
##what
societ
morons
ridd
valuable
hotel
begins
designs
trusted
saturn
receiving
hyster
jumping
trials
##eezing
execut
announcement
remotely
03
aug
coup
cooper
dj
drew
kat
uter
vr
##iently
##col
##card
##xmen
##bec
##69
##45
thick
analy
ing
israel
reception
##iders
cher
##alla
##ckets
gosh
pelos
##inks
manner
plate
disabled
guitar
strict
pharma
monsters
retired
returning
##mycloset
##bbed
mindset
snoopy
deathly
launches
##2022
returned
crossbones
madness
nftcollectibles
shopmycloset
replied
authoritarian
communication
raped
cartoons
mickey
encoun
##archy
manipulation
utterly
dunno
##design
screenshot
oxtail
wreck
imdb
oxygen
420
51
ft
minting
pagan
vader
wak
온앤
##fun
##ystem
##knight
##13
##오프
##enny
##uty
stom
##ige
prisons
##olas
comprom
enforce
arent
saga
grades
cran
nftsh
laughed
reader
feg
realistic
##ulture
##ologically
flip
philly
compete
embr
genoc
farmer
recall
conscious
sooner
releasing
tomato
reflection
allows
coverage
previously
2008
evils
nazis
snowman
fourth
hopes
voters
feeding
profitable
kicked
spoilers
##romance
controlled
clueless
regularly
sinister
rumoured
previews
mansion
dramatic
minorities
tragedy
##locke
intimid
phenomenal
choosing
baku
ordinary
equivalent
numerous
##ryffindor
온앤오프
02
56
ahh
dashing
pi
pity
roof
tail
tumbl
yt
##mate
##made
##iority
##iator
##ng
##zo
##zer
threw
##inction
##opes
chad
chip
##iffe
coz
proceed
brian
drone
##moon
reserve
channe
artific
ownership
follows
finds
completed
clooney
stealing
excuses
confidence
restaur
psylocke
positions
calvin
pasta
ironic
loses
judging
petition
gamer
haircut
layer
nicole
tools
archit
belongs
efficient
illegally
memoir
kwik
pelosi
49
73
aqu
apr
gin
gim
icy
jac
kitt
nint
vh
xm
##town
##bat
##gles
thunder
##isk
andy
##icient
stack
stab
stance
shipping
sus
lovers
unif
##log
seed
##emp
brid
craw
swift
##crisis
markets
stops
spiderverse
invis
hunt
relate
parad
bloss
bullish
restr
producers
cheated
omar
socialism
massi
devast
demands
transpar
painful
denied
irish
portrait
agreement
radical
pulling
catching
##wwww
cinematic
officials
anxious
crashed
subjective
disgraceful
determine
dictators
reliable
vagina
rarible
alpha
unbelievable
afternoon
ak
bread
gene
iam
kor
kent
mtv
pere
tied
##uate
##pat
##oft
##win
##water
##gas
##arre
##etes
ofc
isol
##story
##iled
weed
spam
pockets
lew
arab
clapper
grass
crop
sheaf
nftbs
##ucky
worker
interst
##club
missions
comeback
consent
indic
excitement
elements
passive
victor
antib
anticip
assigned
clowns
electro
empathy
queens
increased
sandy
##anguard
candle
fortune
sanctions
automob
automatically
goblet
qualified
sainz
frankly
highlights
conclusion
dishon
ninja
##bourne
##osterone
crosso
situations
32
bishop
cb
dign
fancy
hug
lyn
nail
nixon
oops
pitch
sigh
##post
##cest
##lam
##kab
##dig
##17
##35
##┈┈
##stagram
alan
unfor
smash
grat
##agues
cried
shell
backwards
stark
firm
polish
emer
countdown
recipe
consens
capacity
essential
confident
identified
transphobe
sells
fleming
centre
beaten
innovation
concerns
divor
divide
protesting
assumption
fascism
julia
xrhp
consistent
gorilla
pregnant
##bobafett
sincere
kwikmas
nintend
ay
bah
cu
hust
jaw
l7
niger
nancy
sle
tier
tai
##fol
reverse
stim
##istol
fro
jose
william
blown
tez
##ucks
##aved
shower
overcome
feats
##press
winners
##spider
supergirl
legs
metric
institution
laura
darkness
joining
holder
respected
##ringe
referred
iran
reports
idiotic
subsidy
##lights
contracts
wizards
journalists
pinned
lucas
advocate
interpretation
roasted
calculus
dynamic
pierce
tattoo
8th
fighter
gryffindor
jill
jug
loo
ngl
rush
vig
xxx
##lab
##inging
##atics
##atural
##ethe
##least
stir
weasley
##thought
##esty
##umn
ate
##abeth
selection
etsy
offended
##udos
##ques
thro
christmas2021
inval
kindness
##ancis
reput
10k
surface
schol
##kins
##telling
testosterone
##novel
cameo
richest
construction
campy
concert
footprint
obsession
shangchi
insulting
chemical
odds
##figure
hoodarmy
duty
alternate
festive
misogynist
juice
bizarre
cosmic
embassy
barbara
42
aint
berry
cdc
egy
fate
iq
ned
nba
ta
task
##rise
##mot
##fill
##will
##hard
##าค
##orate
##oried
##island
##etical
bee
rex
##lymp
shir
dol
liars
##alling
##pping
spare
##usi
atleast
##abe
grip
swim
draco
elites
##plane
febr
strangers
opens
##class
belg
monza
raca
mature
storytelling
xmen97
capit
##ofbobafett
solutions
parody
bullet
##ocks
comicbk
effectively
midas
lowest
systemic
walmart
salty
pattern
airplane
district
credibility
garfield
informed
appreciation
##ethes
represents
escap
infection
bathrooms
graphics
accidentally
dodge
sisters
route
pixel
faceosure
menstruate
sarcasm
krakoa
recycl
mediocre
blossom
egypt
comicbksearch
07
77
gb
jur
lin
lamp
lane
mf
od
ott
ramp
xment
xforce
##gment
##vib
##65
##ini
##anut
todd
ancest
injustice
heather
stret
withdraw
chase
##alley
sos
allies
maple
abused
##orean
blond
tmobile
endless
retail
##duct
relief
##ifts
solved
stew
wonderwoman
headline
120
sneezing
powered
paris
hugh
launchpad
titan
photography
depending
##netflix
technical
adventcalendar
mandate
##obi
practical
package
##eeeeeeee
civilization
virtue
amongst
council
prepare
described
eagles
cells
saints
reactions
guaranteed
oppressed
##kkkkkkkk
assistance
guests
retrotoys
blatant
##cruiser
masculine
greetings
overwhelming
pakistan
wooki
lightsaber
37
aunt
dang
gee
gates
gina
kay
tips
wb
##rog
##mind
##fia
##arms
islam
##idd
##amas
##irth
weigh
dove
##pped
frodo
worries
unit
outstanding
seeking
scare
twat
watches
##soft
booktwitter
##rock
counting
countless
farm
100k
douch
##ooooo
droplets
apocalypse
accountable
danny
fixing
doctorstrange
##zzzz
preference
agrees
grandma
cowboybebop
crew3
popularity
tower
fools
division
##write
twisted
conservatives
##streamer
tragic
primary
measures
warrior
precise
dceu
reckon
echo
chronicles
nftshill
##kaban
february
04
39
bol
ecos
flipp
ie
mt
nhs
pow
pitt
rif
tl
vicious
##rad
##years
##ji
theor
##anity
##anne
##arn
stations
##advent
chair
##tery
##thusi
trian
##earmy
moss
peanut
lemon
pros
##ardo
safer
grief
draft
eliz
internal
flower
##cliffe
boston
curry
heading
creativity
faceloration
opposed
victorian
buildings
promises
ahso
hurting
palette
facelos
21st
suspended
microph
ringed
insults
objectively
bigoted
karma
environmental
privileged
##iliate
##film
traffic
wardrobe
eliminate
arrogant
homophobic
neighborhood
cocktail
dignity
ecosystem
microphone
59
carter
dime
fet
gag
jay
kelly
nich
olymp
peep
saud
##mates
##ih
##live
whine
##utt
##amn
chest
sock
whatso
abt
dement
deaf
noble
pose
enem
marley
brag
everytime
activities
teeth
mugs
permission
##spe
finest
financi
##drome
generic
matic
speedy
killers
scheme
eastern
delorean
sporting
2010
cuts
patre
latifi
deploy
gladiator
sentences
irr
queer
gooo
recorded
responses
preferred
terrorism
models
##porary
soldiers
captainamerica
jerk
booming
dinos
temper
smooth
kateb
demonstr
depression
##chester
granted
academy
supremacist
garden
heartbreaking
outfit
deliberately
icymi
##motiv
600
bend
dur
hoo
kin
kitty
lfg
nur
sf
tank
vit
##cule
##sed
##dis
##bn
##14
##inbur
##oul
##itate
##reate
rely
shes
##artist
##imi
lix
##allow
asks
trude
allerg
abud
noise
donated
somewhat
twin
##eepedia
overr
##athers
bigots
##ormal
presence
emily
boll
bold
coron
legion
implying
##raft
openly
horiz
creates
##gggg
passport
authent
sucker
sucking
salt
##ontwitter
sites
championships
reprod
limits
village
meaningful
reached
electricity
attempts
beasts
delivered
innovative
arcade
interviews
harmful
duo
attractive
rescue
##boost
##company
evilsquid
crossover
consensus
wookieepedia
patreon
700
85
dive
dated
geek
hugs
nfl
pine
##uire
##memes
##pers
##lers
##bab
##84
##gent
##atman
##orp
##ora
##orse
ink
theyre
##ifting
##pto
##ouses
theirs
backs
##ucker
offering
makeup
##udge
appe
fever
##ups
waited
superchar
boots
ethn
matthew
classics
mete
defined
laur
steven
behalf
deserving
##otted
annie
walks
messages
murders
##gold
naturally
immort
immigration
gaslight
engineer
deeper
intrig
suspense
micro
senna
trained
investigation
eggs
syndrome
##leston
trauma
nostalgia
##through
whatsoever
enemies
financially
katebishop
47
52
gf
gad
ske
yuck
##iot
##nan
##aim
##series
##16
##37
##ester
##itical
anna
##acies
##etics
revers
stable
doors
upload
sept
plug
scand
##ourse
##aughters
muse
laughs
transmission
compelling
giveaways
startrek
##selfprom
##eless
slay
syringe
sorcer
##gled
insert
collections
psaki
195
edinbur
cheer
millionaire
cop26
trailers
demograph
strongly
##going
treasure
lucy
weirdo
alongside
involve
punk
##ollo
hydr
publishing
spaceship
feminine
connected
shooter
desperately
alexander
jewish
department
anthony
shamelessselfprom
someday
fuels
sequence
permanent
infinite
torpedoes
carnage
perez
elizabeth
70s
bog
dal
diverse
fda
gym
hater
ipl
nas
tap
##podcast
##iate
##aust
##vp
##onn
##atta
##ito
##rep
##acular
##oming
##othing
##stick
##stract
##ilia
##irus
##illions
amy
##ivable
prohib
prodig
grasp
crick
herb
fireworks
##oysearch
persons
resur
transaction
##reads
defence
finale
obi
ideal
raab
insanity
collector
actionfigure
addiction
bullies
producing
columb
extr
generate
generated
##quels
traject
format
seller
privacy
burns
excel
targeted
skyfall
ethiopian
massively
unfortunate
religions
performances
updated
feminists
objects
casual
responding
flights
dysp
methane
licens
pilloried
sensitive
azkaban
broadcast
hallows
gesture
immigrant
retrotoysearch
sauce
saucer
defeat
procedure
incompetent
encounter
invisible
capitol
##ethesnyder
98
bite
borders
cw
dent
eric
mama
pt
patch
sore
sons
wanda
widow
##rent
##uge
##maker
##lay
##ko
##sen
##85
##ller
tooth
##omax
##icial
##ilers
webb
unic
pepp
pole
marx
##ibilities
##oshi
adjust
eton
helmet
intense
payments
apples
contem
thrones
##athon
evans
masters
monet
childish
simps
instant
stealth
memecoin
engaging
promo
messed
tokenomics
dumbest
##nedy
adapted
scottish
##kywalker
disgu
predatory
competitive
souls
pinksale
islands
embarrassed
activity
cookie
spoiled
provides
jabs
dartmission
capture
achievement
umbre
widely
comicbooknews
thebatman
mechanical
comprehension
retirement
immigrants
mysterious
contradict
tactics
basketball
prejudice
xmentas
binge
dn
dub
dirt
elo
hors
junk
oc
por
##rical
##million
##puff
##poen
##iw
##las
##hem
theories
##anth
beverage
forth
shak
##keys
trains
triple
maker
abol
abstract
lover
enthusi
conver
concent
bru
grind
##osis
swtor
##iah
perce
command
committ
genesis
taxation
##ofd
revive
param
editing
edward
##ps5
passes
secondary
sirius
psychological
costumes
photograph
2006
larry
engineers
irl
##oringcompany
meaningless
periods
tournament
fortun
spectre
demanding
scarlet
bowl
sarah
jimmy
applies
semi
neighb
consumer
theboringcompany
##morning
motivation
reduced
aspects
oblig
justiceforlewis
phantoms
onlineclass
kishu
giftideas
inevitable
genocide
restaurant
edinburgh
umbrella
daughters
fyi
kil
kicking
nap
pul
rats
wwe
##iency
##him
##63
##zing
thief
##oral
##ener
reaching
ster
stones
shakes
##ads
##chool
amwriting
francis
root
lobby
pepper
##ounce
armed
gray
##velope
adore
drives
##actions
skip
quinn
firearms
preach
harsh
charl
##awler
##ache
##comfort
presented
belt
##anges
county
awk
##shop
remaining
hardy
glory
##launch
impe
instantly
epid
darkest
region
essaypay
colin
wouldnt
covering
milky
##ipper
##ograp
binances
africans
millenn
designer
traveling
250
##yyy
secretary
reminded
packed
challenges
scripts
trolls
contribution
journalism
##martchain
significantly
strawman
tuition
accomplished
ineff
fanboys
sympathy
goofy
fulfill
taiwan
trajectory
binancesmartchain
bent
cage
ds
dood
dates
dudes
ff
ik
jury
pee
rome
soph
trem
##mal
##map
##dp
##due
thugs
##ingu
##lle
anat
ish
rooms
alas
alice
atro
unlock
envelope
##lovers
leaked
##astarter
arth
saur
blanc
agency
newy
adverse
drake
##cock
perm
filters
fucks
##group
attraction
farastarter
##alson
sunset
closet
regulation
housew
shortcake
glob
generous
readingcommunity
masses
closely
constit
dragons
conversations
cinemat
globalcrisis
melbourne
attempting
spiral
foolish
casino
##super
supreme
##ribution
additional
consistently
##movies
lawyers
traitor
accomplish
jamie
##harry
graduate
##wallet
choreography
hbomax
paranormal
bombs
farmerdoge
ginny
nintendo
##folio
trudeau
aang
ahhhh
ahhh
bbb
cm
eid
il
jed
kudos
mongering
render
wire
www
xy
yass
##mat
##pie
##fantasy
##wt
##100
##eding
angle
##real
##omo
##icable
whis
beats
##uto
##lyn
shark
##olo
##uster
##umber
spar
alber
outright
##ifa
##endous
arag
howard
needing
wrest
greatly
##pert
thankfully
wherever
signing
slap
##lings
basement
loudspe
consult
raimi
entrepr
honour
settle
directing
stays
apes
cancelling
device
forgetting
entered
fails
penn
survived
##zzle
pandering
##parrow
touching
organizations
disappointment
##aaaaaaaa
scratch
reveals
gained
colonial
dartmouth
infected
tyranny
bobafett
application
attracted
festival
gesturing
bulb
prophec
##donald
pedophile
cabin
sneak
cousin
channels
artificial
stretch
coronav
loudspeaker
blew
cel
ceek
huffle
krist
kung
lung
mates
pistol
wot
##rous
##rian
##uits
##mans
##publ
##person
##natural
##lad
##wald
##bee
##batch
##hel
##49
##inent
##isms
##reau
##acious
##icy
stem
stores
hav
##sever
shy
##ecraft
wears
##uled
alleg
##ooked
groc
##ogu
mug
womens
##beasts
gotg
lighting
##comes
##anged
blackw
##speed
##show
accus
remark
classy
mins
minus
instance
indo
topics
barnes
faceeriencing
succession
visible
subpoen
identities
verified
circus
##mony
communism
mentalhealth
##resp
recommended
melania
attempted
subscribers
affects
robbery
pedo
eternal
timoth
kennedy
felony
harassed
dictator
sooooo
influencers
mortg
inherently
flawed
shelter
solely
quantum
institutions
executive
##motivation
43
cind
fitting
iphone
lbs
miam
si
upper
##mes
##ij
##di
##bot
##birth
##87
##gic
##zes
##ถู
##onso
##itor
##edly
##iswap
##ido
heist
##igate
##igible
shine
lips
##usted
orch
unetongue
##abilities
brun
##agers
scif
backing
betray
offs
downing
thankyou
##claw
mash
follower
sexism
simon
mighty
nights
oppon
monthly
exclude
##ega
prompt
reviewed
youtuber
admire
certik
commenting
cowards
shibaarmy
amounts
punish
domino
stormtr
nominated
objective
hypocritical
thrilled
software
northern
unlikely
dystop
##green
saint
dominant
graduated
buffdogecoinarmy
wilson
bluesparrow
maximum
decentralized
repeatedly
coincidence
phrase
august
uterus
wakanda
stomach
dictatorship
frozen
featsandfestivitiesparty
saudi
lixian
bollocks
dysphoria
hufflepuff
##ถูก
dread
fury
fbi
hent
hired
ml
naked
n95
sane
tm
ws
##table
##nut
##lies
##kish
##bear
##éal
##าถูก
##ราค
##acles
##utants
sto
forbid
##igan
faceense
##opard
##opath
dock
tras
meal
abusive
abilities
debr
lohan
enh
conso
conduct
seb
segreg
coal
agents
##ptions
bug
pleased
##berty
serial
##crawler
##ecko
lightning
checkout
assholes
callofd
hobby
##spo
birds
##glass
banana
headed
questionable
imaginary
extent
politically
millionaires
accounting
celebrated
strongest
failures
planetary
shoe
renewed
waterstones
impression
treating
painted
ghosts
panels
recording
homosexual
podcasts
sandra
tastes
blogger
focusing
feedback
hidd
recognized
wheels
##rrrr
shadows
bemilgame
veteran
substance
tribute
disrespectful
guardiansofthegalaxygame
reducing
frustrating
introduced
hahahaha
##repres
wizardingworld
fifth
tacky
funniest
erc20
luxury
insecure
disturbing
brutal
sweden
dishonest
hustle
reputation
nurse
meteor
committee
##ographer
newyork
eidos
entreprene
##ราคาถูก
800
gab
lor
mk
migr
os
ole
pac
pub
vocal
yam
##rence
##iating
##wich
##hes
##vas
##vide
##onia
##isem
ingr
##store
##alo
stor
##kel
lily
asp
##celer
##ums
orient
cogn
manager
##irect
grogu
##plant
##lfare
charger
compos
hoax
##naut
supernatural
shits
filmed
10th
2023
minecraft
##keness
laid
##ofthe
behave
misle
##tréal
successfully
messy
bts
mentality
statist
jackie
fantasticbeasts
libert
portfolio
connery
negot
appeared
operation
professionals
thorough
teenage
vulcan
dexter
389
substant
x100
comprehend
inferno
usdt
warriors
hmu
compensation
hodl
catholic
blackwidow
06
dash
gil
hs
hw
hay
hann
osw
pipe
rere
wax
waves
watson
##rate
##ux
##pear
##tles
##cend
##four
##floki
thebook
##arr
##aren
##orney
##orph
##iti
toyp
##eting
android
chasing
##challen
##imated
welfare
spouting
units
peer
##akin
coke
evergreen
swe
dracom
bureau
##soon
intro
wayne
bookboost
##aham
realised
##coon
##ilee
##achu
commander
evs
obst
obtain
attorney
metaph
planes
acceler
cryptoisland
rub
inclusive
gems
certific
horrific
identifying
cais
statues
searching
termin
##montréal
approve
lifting
puberty
touched
hospitals
streamer
##uctive
faithful
senator
hypocrites
jersey
bells
combat
judgement
assaulted
grinch
##crypg
maintain
assassination
##magic
felons
octopus
architecture
uniform
cinematography
coronavirus
eidosmontréal
oswald
dracomalfoy
58
bald
eup
file
kong
las
pear
rail
sed
sample
tipping
zend
##rich
##rics
##ubs
##iences
##far
##law
##ku
##bus
##vader
theology
##anse
##etically
chop
##ching
##iments
##thru
socc
assem
##ista
allah
align
alonso
##anta
smug
placed
branch
scumb
imho
overly
partners
payers
##adel
marveluniverse
fires
realizing
persever
playlist
phones
polite
##space
awe
awh
terry
accent
genitals
slur
101
bonds
##wheel
lessons
rupert
nightcrawler
riding
hammer
selfpubl
breakdown
dreaming
affir
detailed
equip
mentioning
vari
boxing
franchises
##yrs
motors
picks
targets
sanders
prisoners
##auders
predator
practically
recommendations
assumed
assumptions
complaint
complaints
activist
temple
drinks
gatekee
naive
depressing
mortal
woods
reflections
reignofx
##worthy
cruise
translate
##panther
elementary
pilot
elderly
jugger
precisely
immortal
aragorn
console
soccer
scumbag
bing
cmon
dee
ea
ht
lyr
lisa
nik
oj
pik
rd
tire
tens
wen
##big
##76
##74
##gor
##givable
##jb
##jkt
##oust
##aron
inception
input
whip
ongoing
##utter
##amin
dozen
tri
trave
trillions
##gebra
algebra
ark
##osh
criter
redist
resort
gotcha
apps
meds
medication
##aware
permit
asset
assert
owes
blackpanther
##cience
mush
##elled
courts
##maid
collecting
curse
headphone
confusion
edvin
turner
apollo
midd
antifa
viewed
refuge
researchpaper
promising
patron
patience
2007
empower
lands
halfway
ironically
punisher
roadmap
languages
inspirational
candidate
materials
employee
responded
spectacular
decorations
manipulate
lockdowns
tilted
darthvader
revolutionary
injured
korea
evangelicals
distribution
##↓↓↓↓
battles
marginalized
survivor
registered
##juice
abandoned
cranberry
korra
sincerely
nigeria
belgium
allergic
awkward
09
5000
b4
cere
cah
cave
dsd
dlc
dwayne
eco
jets
kit
kal
len
nailed
pant
sid
tang
void
##uum
##cs
##fund
##your
##word
##bender
##vy
##vention
##oned
##atp
##atron
##itz
habit
havent
##see
shitting
chee
##chat
##ima
ally
framed
uniswap
##apr
lean
leak
clark
saves
discred
themes
cress
hercule
##asset
flok
laughable
preorder
##odies
oprah
##pres
pharm
##claim
emper
evident
##rocket
accused
slower
factors
maguire
incons
warrant
problematic
comicart
trumps
barr
remembering
valent
##nox
lotrwatch
canceling
turkish
identifies
safely
2005
landed
landmark
forgiveness
centuries
colleagues
gamers
burden
worrying
largely
practices
tourist
1991
vanilla
immediate
kylo
shootings
hulu
purchased
fluid
bandw
teenager
audiobook
lucifer
hacked
manufactured
ivy
predictable
unvax
controversy
lesbians
##￣￣￣￣￣￣￣￣
gentleman
kamala
##themars
condemn
##thoughts
rifle
paramount
neighbors
arthur
##spoilers
lotrwatchthru
aer
dess
fck
hats
lore
lions
mcl
p2
pard
rant
rage
tin
tant
tenn
viny
##rain
##uity
##mand
##wave
##hun
##hotography
##gal
##3d
##ativity
##esc
##omp
ital
whist
ont
onthemars
sticking
fork
forms
##amm
##ople
##add
##iller
prick
##olan
trav
amm
mafia
unle
uncomfort
marauders
coing
sayin
##assic
rocky
##kingdom
imola
##wayhome
guilt
##izz
server
translation
charities
christopher
deciding
biggold
perception
assess
defended
flood
afterwards
probability
presum
emm
dcuniverse
objkt
correction
lists
careers
##brid
discussed
raid
100m
reasoning
agreeing
collective
regul
##bbing
lesser
edited
adds
restor
facelicit
boyfriend
respectfully
##collector
copyr
admission
audiences
cutsc
patrick
preferences
portion
17th
closing
mistaken
obsc
##oopers
screenplay
freedoms
spidermannowwayhome
organic
recognition
##marvel
printed
historically
automatic
margin
##buster
unrel
fashioned
establishment
association
lunar
discrimin
editor
repeating
korean
merely
fragile
societal
april
automobile
shakespear
prophecy
callofduty
hiddleston
zendaya
juggernaut
biggolddoge
copyright
54
bart
hic
kry
lake
loos
ni
pp
ruth
rank
tan
tul
tempt
vert
yen
yah
zbr
##pit
##pent
##ipt
##averse
##bet
##bership
##hill
##good
##vet
##onde
##stood
##uther
stunt
asyl
fraction
atom
loot
unemp
heartbeat
twins
wrap
##qual
##quinn
charming
##ometry
##prof
filth
repair
pops
##bros
##scape
tops
nicely
damaged
teslas
powerpoint
merit
##weight
questioning
coloss
##ificent
refers
respectful
00pm
admitting
##gobl
inspire
astro
addressed
cycles
stocking
increases
arrives
influential
dominated
mathem
hawkeyes
lacking
cameras
premise
sticker
protests
hmmmm
pigs
shallow
twitchstreamer
clarify
captured
achievements
tyre
computers
sacrific
##authors
residents
ravenclaw
lonely
glorious
bastard
หารh
sheeran
acknowledging
##onymous
improved
upgrade
glveaway
tomatoes
restricted
stimul
##vibes
unicorn
hentai
cognitive
inconsist
dessert
coingecko
unemploy
aa
ace
aesth
bib
dicks
fusion
hiring
ly
mm
session
soup
wore
zeal
##run
##long
##lash
##ded
##hal
##houses
##gaming
##jan
##arry
##omatic
belly
stamp
##igen
dos
priority
neb
spain
##geance
rooting
untr
##ookie
peas
enlight
outcomes
##ounder
exch
##ibur
bricks
disreg
##dead
##agle
craz
goods
handled
newsp
sheet
carrot
##onda
rednot
elab
gull
veget
resume
decre
corona
genital
slim
sexually
popfigures
simu
imply
instruct
banner
comingsoon
keys
membership
morales
argu
luckily
posit
breakthrough
gtfo
pengu
importantly
sentine
##flash
locations
keyboard
mandatory
viruses
accessible
sexuality
tours
timing
kenya
purely
ultra
contributed
hallmark
operating
##break
apartment
100xgem
##safe
jews
##enshin
dimension
adopted
selected
academic
portrayed
clinton
resistance
introducing
lazar
hypothetical
gratitude
stewart
hydrogen
peppa
alberta
miami
debris
yamato
thebookofbobafett
asylum
76
aven
bp
bars
bones
dazz
gi
hers
jake
jeez
kany
mall
nit
noooo
poop
rudd
sr
sins
tent
viv
voc
vague
wages
##rid
##tongue
##iat
##ias
##cav
##fung
##finger
##lett
##wig
##jk
##erk
theft
##enuous
##itage
##educ
##stuff
##amaz
livest
##this
pratt
trap
##uman
nobel
uncon
conference
prost
##iban
brits
disability
goodreads
teens
twenty
carole
##mod
offense
preced
strain
##iley
##master
##nell
##orship
taxing
##holland
discussions
plane
leftists
creatures
mercy
paras
keith
elev
honored
proportion
beautifully
nonfung
refres
catwoman
bitcoins
patt
typically
verdict
cafe
danie
surprises
autism
references
slightest
13th
fantasticfour
digitalasset
##backs
##balls
supposedly
closest
suggested
prayer
philipp
maths
concepts
budgets
criticize
tbf
randomly
mystique
operate
nova
neutr
angels
##oooooooooooooooo
medicare
luna
magnifying
magnificent
resource
fabric
tube
colours
manufacturing
ambig
flaws
borrowed
intentions
transportation
pipel
poems
delayed
grammar
jungle
observation
volunteers
gibb
harleyquinn
fundamental
nigga
sherlock
hysterical
tumbler
invalid
jurassic
ahsoka
abudhab
selfpublished
equipment
pikachu
vinyl
arguably
66
cents
dw
flee
jp
jw
jag
kurt
lb
ov
rag
tc
tut
tig
wack
##rens
##mich
##mother
##yard
##kids
##bie
##bits
##hist
##55
##47
##onder
##itic
##ede
ana
##asters
##idal
##ilight
##irk
lip
libs
lifest
##allows
soy
aswell
tru
maur
makers
abus
enorm
outs
##apse
marvin
plots
bron
crappy
crashing
bucket
imma
##avier
payload
firing
##dra
mont
sunrise
cursed
incap
parade
fairness
##ifications
coursework
antisem
narrow
walls
viable
honesty
acceptance
##othemoon
##llywood
diagn
murderer
##000x
influenced
spotlight
sharp
historic
wokeness
disneyplusday
comparable
improvement
##acoin
minimal
hooked
initi
toilets
##yyyyyyyy
visuals
passionate
altered
louis
orbital
blanket
misunderstood
jaib
chadwick
interstellar
ancestors
september
impeach
sauron
##birthday
toyphotography
##crypgifts
awhile
cressida
##goblin
3000
89
aur
aaron
bike
cig
diction
ew
fjb
gwen
hou
hog
homet
ira
jin
jude
ker
katar
nolan
oo
oooo
obey
pg
vap
xspoilers
##mond
##tim
##core
##week
##god
##vanguard
##28
##27
##atures
##enna
toby
##oma
##omin
##oman
bears
reagan
chr
##alled
prest
neat
trips
tricks
trivia
##ryp
alita
dey
donors
joint
jojo
##about
##apers
bland
grie
gritty
##oses
newly
##owned
gucci
quot
overs
floating
contain
##ologies
percy
supporter
nether
remem
attrib
humour
potatoe
dogshit
wondered
creature
easter
mcap
##phot
bullied
possess
publicity
refusing
##dddd
titans
##leearth
2011
visiting
admir
coinbase
credible
variety
auton
autistic
##ettes
geometry
tarn
convo
14th
furious
vengeance
organisation
savage
scrap
virtually
jumped
apologies
stafford
megatron
clouds
establish
independentauthor
incidents
rewatching
traits
dynasty
urbannovel
collabor
resolution
muppet
##freaks
consciousness
throat
fetish
museum
sorcerer
cricket
contemporary
stormtrooper
uncomfortable
zbruh
gibbous
41
7th
bending
cot
dic
dil
ewe
eaway
ic
kot
mmm
nerv
rug
sib
tape
zack
##rp
##rest
##pets
##och
##lh
##year
##dt
##dam
##b6
##86
##gam
thls
##era
##erning
##org
##reen
##etn
andre
##otica
beck
beard
beef
stellar
faceanse
shake
##ador
##adows
dobby
asf
spit
algor
justified
worn
ende
marks
sel
brake
dising
disrupt
acted
starving
elit
##enses
underm
mayor
lottery
asses
sometime
default
defund
flick
##black
committing
poles
emph
dcf
oldest
factually
##ocaust
buys
carefully
surf
collectors
regime
sounded
revis
specially
mcdonald
addict
##gged
squeez
socially
possibilities
passen
chew
morally
morgan
props
omega
terrifying
mister
holocaust
facilities
demons
trev
mentions
##tttt
windows
retweeted
fascists
##writer
embarrassment
principle
tenet
ranked
##wells
jonathan
intentional
1963
manufactur
bucks
bunny
convincing
blatantly
pencil
torture
cannab
ottawa
blondie
shakira
globally
restorethesnyder
tulip
hawkeyeseries
nonfungible
08
94
au
bil
bump
cuck
dense
ect
ecc
fears
gur
nz
pse
rival
##eve
##fect
##find
##yer
##dit
##born
##vania
##39
##jatp
##onies
##ata
##itating
##edict
toes
##accept
##otr
wheeloftime
##seas
shed
shatter
prizes
soap
butch
canvas
amber
noir
lobb
unaccept
##abama
conce
lemm
marathon
seats
##arding
##ortongue
cring
twilight
bugs
starwar
overstreet
##uding
chargers
##athetic
##apple
ohh
##ussie
awake
gameplay
bobby
bits
##erto
muscle
invasion
retros
retarded
factual
godspeed
childrens
##wardrobe
##bron
surgeon
19th
mercar
##uffy
##after
imagined
oppress
misrepres
biologically
continuous
viewership
##collection
cancell
submit
50k
blockbuster
15th
shuttle
couch
satire
##month
disagre
benefited
##event
##eeeee
difficulty
australian
courtney
jfc
##uctions
recognise
struggles
contributions
investigating
##oftheday
1984
circles
requirements
##otype
savings
##agonist
hrs
goddess
vaxxers
allegedly
christmast
tornado
schedule
styles
embrace
susan
transparent
recycling
prosper
wrestling
##help
dystopian
misleading
thoroughly
euphoria
##wheels
redistribution
middleearth
italian
unrelated
rednotice
refreshing
disingenuous
restorethesnyderverse
unacceptable
1m
7pm
aj
bday
cul
cunt
hc
hick
hnt
ket
mit
mun
rs
vin
##ml
##tond
##bly
##hoo
##gt
##gb
##vr
##vol
##vance
##36
##js
##jedi
##esters
inches
##owed
##utable
##selling
##igp
doj
doz
##htag
##ulpt
mos
spots
rod
abo
albert
alabama
worm
uncomm
pok
outdo
sealed
whoa
##eman
bliss
blows
blonde
cruz
##ogether
carlos
dressed
##iper
offset
resem
marvels
underest
files
##forever
diff
ohhh
##gets
##shine
repost
glen
presidential
understands
governor
caps
regatta
studied
entity
##ggame
purs
cleared
sett
omfg
terrific
engaged
damned
photographer
crossing
unitedkingdom
truths
digging
2004
aircraft
airport
renewable
erase
garner
impress
controls
exceptions
writes
cyn
artistic
robots
cambridge
grows
asterisk
productive
facelode
predators
souza
procreate
impacts
cryptocurrencies
balanced
fatal
avoided
##suit
boomer
vacuum
qualify
overturn
decoration
sideshow
riots
tigerking
dramatically
consumers
##uuuuuuuu
##morales
rejected
quizzes
stalking
obliv
brosnan
installed
ummm
multiply
survivors
relatively
subtit
proposals
frequently
bethenny
industries
beetlejuice
cuba
vigil
scholars
dolph
irrational
gaslighting
reversed
prohibited
francisco
mclaren
penguin
philippines
neutrality
incapable
jaibhim
dictionary
katara
algorith
endeav
dame
dual
divid
fles
ginger
hib
july
kkk
lud
mald
rc
slipp
ttr
wend
##elf
##iques
##lit
##lic
##sad
##who
##hat
##vie
##41
##aton
##edge
##isan
inhum
whin
##sea
faceans
charts
checo
neo
neph
coat
##emen
howl
##ibal
hashtag
sculpt
adap
drs
drum
intol
##ials
gotggame
laughter
charm
##code
underground
decides
##masi
yell
comply
##road
##erties
genetic
monop
ido
repay
supportive
10x
sweetie
teamlh
indones
indigen
epstein
warned
tryna
contrary
easiest
parall
##weasley
lawrence
##phy
cheery
extinction
delays
continent
##collectibles
vikings
hotbit
developer
visited
hourglass
kingpin
entering
2001
gladly
immers
diet
diab
adaption
##flower
goldene
euro
portal
suggestion
represented
winds
cleaning
filling
recovered
challenging
civilians
##nnnn
employed
penalties
describing
ronald
nico
preventing
oscars
rebu
##starwars
sector
gmt
lizzy
advocating
outraged
commitment
mexican
##criptions
shamrock
legisl
navy
goddamn
podiums
conquer
oooh
haunting
divorce
joseph
titanic
anatomy
mortgage
##video
##challenge
criteria
bandwagon
whistle
elaborate
gullible
##tondc
dozens
indigenous
378
87
96
a3
ale
bh
ding
diver
hills
nest
ntt
ogre
pope
pto
paced
wc
##cards
##fx
##full
##yo
##dont
##wed
##wolf
##gular
##je
thirst
##erpt
##ati
##atrix
##itors
##eder
toky
whol
whipped
##storm
belf
##ayh
reim
replay
rebel
stink
##igue
faceose
sha
chess
##arters
notion
liver
##olol
neural
alley
alike
unus
##ateur
coh
exit
brook
brick
dispr
##agr
crab
##pton
shelf
carpet
droid
backlash
staring
greatness
##beam
daylights
##liament
##ailer
happybirthday
throne
##ologists
##prot
##prime
flowers
signals
eval
monica
slide
godzilla
glitch
vaccinations
hellions
definitions
banning
headlines
fewer
sadd
keen
protesters
destination
properties
babyy
##truck
##queen
hotwheels
walt
ballot
##ika
turbo
200k
shove
treason
northe
burnt
jeang
goldfinger
concerning
approx
radcliffe
targeting
gamble
suggestions
convention
gerry
sorts
competing
envy
presentation
bitching
bitches
introduction
revealing
senior
representing
ryoshi
baseball
preparing
infections
execution
maryland
ferris
albums
mountains
##holders
puppy
ensl
yesss
doomed
richer
delighted
transformers
mocking
engagement
satisfied
exceptional
implemented
errors
marshm
##madness
publishers
riddler
xmenc
unforgivable
##softwitter
triangular
authentic
refugees
emperor
ontario
shakespeare
jwst
lifestyle
netherlands
64
bam
gill
gree
jus
ka
kum
nan
sink
ties
waking
##rac
##rol
##oly
##ollow
##cam
##fy
##fd
##bound
##bait
##51
##´s
##⠀⠀
thie
##esign
##itated
##itute
##edit
anch
##rete
##acryp
##astern
##aswap
inacc
inbox
##uture
stans
##verstappen
##imed
prol
printing
sover
spite
spends
abusing
justin
uneduc
pov
ench
enfor
outlying
lex
##ifter
##akens
knack
exhib
gr8
scal
scores
righte
elim
guid
##daysof
payer
paypal
##liest
marvelsa
##quis
bookreview
serves
decency
##neum
##orsese
endors
amazed
bozo
hardware
slam
spelling
legolas
##brit
minis
compliment
relatable
##ofhouses
ps2
curb
regs
parking
parliament
eddie
bulls
eleph
babydog
billboard
refr
refug
momentum
cuties
typing
latter
equity
immense
screens
##uuu
buried
hybrid
##aughty
nerds
notebook
packs
policing
washingtondc
purposely
combination
emotionally
harassing
chatting
twitchaff
performed
margar
henrycav
pfp
diseases
magnetic
therapist
constitutional
athlet
confirmation
mysteries
##biden
masculinity
sponsored
wicked
hiphop
boundaries
##ulsion
hedwig
industrial
georgia
cherries
##patine
swimming
socks
horizon
lungs
cindere
orchest
hometown
uncommon
uneducated
marvelsavengers
5m
86
athe
dt
daf
dimin
founder
gears
heter
kai
ls
mast
nra
ore
pst
pitting
pneum
ripped
rookie
tub
vet
vid
voy
valley
wond
wipe
xfact
→crypgifts
##rin
##mary
##aurs
##lord
##kill
##west
##james
##onj
##arks
anakin
##asis
reus
stakes
shaken
shining
challa
##check
asm
wast
trends
##unc
meadows
gosp
##ulent
##ulating
spears
spinning
abc
orph
dean
unaware
joel
##abwells
convert
##ounced
##astroph
arbit
##emis
##ibig
##inda
scroll
happier
quoted
persu
float
prequel
##bsc
##quered
string
intervention
endorse
##ango
##roe
moonshot
maxverstappen
faves
nextshiba
slaughter
idabwells
thoughtful
storylines
vaccinate
sunshine
defining
##ateral
darker
horn
babys
advise
releas
coolest
tomholland
chequered
barrel
terrified
ruling
investments
psycho
excluded
wales
001
messing
visually
answering
digit
2002
unfold
wann
waning
treatments
boobs
favourites
tracking
justiceleague
receipt
subsidized
domain
puzzle
vomit
capitalist
apparent
micros
divided
courtesy
representative
kenobi
opposing
jabbed
raptors
colonies
sacred
switched
priorit
dipshit
→→acryp
merchand
indieauthor
roughly
crucial
premieres
phantom
bastards
proposal
incentive
seedling
tmobilegiving
douchey
housewives
dreadful
entrepreneur
lyrics
unvaxxed
hicetn
stimulus
abudhabigp
iraq
trevor
nephew
goldeneye
northeast
jeangrey
righteous
guidance
79
aye
baff
cd
cait
caut
ein
emo
fk
hd
hart
kur
litter
malfoy
nd
naming
qb
sized
tense
vital
vett
wy
watt
yule
##mutants
##east
##tec
##iy
##aus
##fight
##look
##words
##bask
##89
##eno
topp
##isive
##asions
##otting
rear
sticks
##igo
##igalson
##ecca
chills
butth
##uns
supr
spook
abortion
##ante
##antics
dext
dehuman
uni
unsu
leopard
sequels
probe
plants
plague
haslab
seeming
disorder
gracious
graham
##agles
scoo
scro
scorsese
heres
adject
##mode
elvis
##sold
quir
quarant
##quest
bookre
transwoman
20years
interaction
##ools
commons
badgers
##grid
discortongue
monit
godfather
freely
glow
fanfiction
surve
definitive
10000
insider
incon
stefan
excerpt
entr
parks
bullock
colony
tomb
morals
destruct
setup
omn
delusions
fantas
investor
##aneously
##essional
##media
testim
developers
youngest
##ippin
saveprod
madden
enterpr
treas
educational
sentiment
immun
immature
treats
travels
##ethem
arrive
homage
cardi
radiation
punished
mutual
observed
eaten
flags
flagged
voter
martian
practicing
candid
rhonj
activism
investigated
##joe
##heads
controlling
beside
churches
megaman
rolls
dylan
astonishing
consequence
climb
initially
wiscons
routine
dummy
stalin
pipes
comedian
muslims
washed
##awaay
convenient
principles
gimme
bridges
shirts
peeps
demographic
horses
epidemic
##respons
bureaucr
certificate
##president
tantrum
sentinel
##history
enormous
cigar
flesh
wholesome
##basket
saveprodigalson
wisconsin
60s
9th
ct
dwar
diana
ebooks
fog
fomo
gps
glee
hugging
jup
jub
kl
mute
naughty
pud
tits
tension
taco
ufo
wx
wider
yawn
##upp
##eign
##oking
##count
##f5
##wit
##bos
##block
##hcry
##émon
thee
##anon
##enes
toast
##isp
##otive
itongue
##sta
bean
##alk
reid
regr
stead
##igence
shore
##ilot
##ilation
livel
##urb
##andthe
##cel
##isting
allen
moz
whatif
alf
##antis
unity
joanne
outd
lebron
sail
##inder
##osity
timeless
newton
newshiba
##asso
adams
carpent
##active
vegan
overth
##quir
transactions
strip
interse
taliban
moonknight
finn
accusing
remakes
##asha
boi
corp
believable
reporter
popped
hellfire
fanbase
projection
collected
ps4
curving
banter
##commend
confounded
studying
pumping
origins
cheesy
comiccon
founders
catastroph
promoted
perfection
versus
murphy
cutest
volcan
volumes
depos
2009
airdrops
forgiven
miller
25th
##erole
tracked
concrete
quicker
debating
##iii
communications
##annft
grandpa
convict
sorted
spidermannowayh
negativity
##twt
subscribed
##sexual
complained
apologise
##umbling
armor
buddies
##walk
annoyed
teenagers
oxford
executed
royale
depressed
reborn
sensible
aztec
satellites
cybertruck
→→hcry
dimorph
##seller
paintings
bankruptcy
surprisingly
surrounding
##children
exhaust
shaped
casserole
##spiderman
dinosaurs
pineapple
lauren
remarkable
pardon
cutscene
untrue
exchanges
nervous
kettle
pokémon
nttd
sovereign
twitchaffiliate
athletes
pneumonia
jupiter
→→hcryp
ake
bry
coo
cud
cater
dab
dud
fiver
gy
jazz
nib
pas
pom
pcr
sd
tt
tas
wig
##makers
##punk
##ckey
##fake
##len
##bnb
##haw
##96
##inas
##aris
##itism
anderson
reloc
##idy
stu
facee
shaking
liability
prope
##eex
##union
##isto
alliance
spine
spice
maid
combo
##atel
##ainting
mario
cov
arson
knees
clips
clothing
dism
blink
blaz
cro
swing
swamp
drill
reddit
starcruiser
##soff
overseas
##bels
##eryl
##izers
##ahn
##ensity
feb
maya
##awatson
flies
compon
elons
ohm
##shank
invade
invitation
idc
racer
recip
teammate
cape
essence
moms
wished
pecans
##oooooo
hamster
founded
##rik
consideration
turtles
bombing
distraction
unfollow
wanker
watercol
##iosity
static
denver
irre
tracks
artistontwitter
debun
hawk
disagrees
palpatine
sandwich
gametes
suggests
burst
conviction
fitness
raping
competent
nerdy
moderna
supers
novella
crashes
caster
cosplayer
##ocolor
##john
operated
thrilling
washingtonian
troubled
##xxxx
awarded
losses
visionary
brazilian
fields
knocked
tslaevent
##shibainu
##foot
efficiency
collaboration
rosberg
inferior
witnessed
patriarchy
cowardly
sarcastic
acknowledged
polaris
gallery
muppets
shawshank
strictly
intimidation
paradise
victoria
lynch
jaws
peanuts
temperature
##baby
licensed
subpoena
reread
##aprio
emmawatson
colossus
sacrificed
##michael
cannabis
lemme
cancellation
wendy
intoler
tokyo
belfast
babyyoda
inaccur
henrycavill
hicetnunc
quarantine
6pm
bly
bans
deck
daw
ez
fond
hut
ily
jing
kpop
s2
sas
sends
tn
vary
yards
yield
##rider
##matter
##kid
##was
##88
##gard
##59
thirty
thec
##onal
##onto
##arians
whales
whiny
hehe
stair
habits
##ami
shiny
shouting
##enting
##ecris
wewant
pry
##unite
fry
rolled
##anto
##anted
une
willy
outlets
output
##apes
leverage
##iful
coco
smack
arian
clones
saul
disco
gren
##aga
scams
handling
elves
eligible
nftmarket
velo
##beast
fella
strait
charism
interplan
artemis
colleg
commissions
##ighters
menace
obnox
genres
hardest
classroom
amazingly
shibaswap
instinct
##ruption
issued
solan
solving
breed
futur
joins
cooler
profound
droplet
hearings
greenwald
greengoblin
movements
viewer
##echange
lmaoo
turd
##ontongue
identical
hahah
##dinger
dealt
equation
erased
garland
##ographed
smartest
geocolor
irrespons
resulted
shops
transphobes
communicate
panda
involves
##offs
sandman
##ervice
dragonball
disgusted
faceloit
16th
disagreeing
organized
despicable
universities
benedict
fatalism
guardian
corporation
avoiding
civilian
insanely
##haul
kenner
spectacle
combust
purchases
shady
1980
scarlett
bandage
##iffin
pinched
accommod
requirement
demonst
documented
eggplant
dedication
hesitation
priorities
rumors
associate
rebecca
https
rewarded
creep
categories
apex
destinyofx
bundle
implied
stereotype
gaia
pedophiles
procedures
supremacists
onlineclasses
appointment
kobo
narcissistic
compromised
crawl
scandal
constitu
newspaper
pipeline
faceansion
indonesia
bookrecommend
spidermannowayhomet
interplanetary
colleges
1k
63
74
aids
bass
batch
bounce
dian
ease
fsd
gaining
lav
mb
mes
mick
mitch
nt
nj
nec
rash
tch
tiss
tamp
tucker
vc
wth
xen
xavier
yard
##railer
##ihood
##fish
##lson
##df
##b3
##b4
##burn
##bucks
##hu
##57
##56
##££
##erm
##enby
##itan
##itongue
toe
anom
##reunion
##ici
isa
##stoy
beans
##ayed
reh
heir
hail
faceox
shag
##opia
chains
##champ
##thed
mex
amreading
subl
##ulse
spies
fright
rober
orland
debit
unsafe
peac
donkey
##abuse
hearted
##ective
cox
smear
prose
exagger
brig
clan
clich
blaze
scorp
swallow
handful
happiest
mud
##beer
marvelous
##quotes
harmony
strings
##athaway
whereas
##mobile
collaps
phill
##encer
##blood
endanger
##roit
##enez
misses
##graph
attach
##ertain
humili
buyers
spewing
recon
understandable
insta
fanfic
cleannft
enjoys
capsu
##ofmadness
birthdays
wordpress
horny
doug
hubby
chef
singular
posing
learnt
0000
hotongue
milest
murray
inflamm
##boys
micheal
distinct
fleet
##akened
shouldnt
draws
secretly
telephone
judgment
communists
grandfather
nerve
programming
1995
pedro
recommendation
loaded
opposition
chapters
##hhhhh
dubbed
##girls
campaigns
jonas
dictate
hoodie
hideous
hermion
hillary
##starcruiser
1969
encouraging
dominic
jeffrey
punching
traitors
ramona
mechanics
incorpor
injuries
teddy
dispos
labeled
declare
guts
prophet
mockery
defeated
freakin
marginalised
sacked
insights
permanently
adoption
climatecris
organs
yuki
exhausting
javas
##hrs
kentucky
dalton
accusations
timothy
opponent
hannibal
deemed
travelling
aesthetic
genitalia
pattinson
houston
subtitles
scholarship
algorithm
ttrpg
brooklyn
thieves
scooby
livelihood
capsule
62
ais
cbs
dop
geez
kath
lyle
mn
mg
nad
ock
pyr
rally
rpg
vest
wid
##ran
##pace
##pol
##oan
##c8
##cia
##a0
##kat
##sie
##wer
##blog
##hy
##hul
##gi
##0k
##1st
##jong
##job
##eres
##edition
##eton
##oto
##icia
##stories
rebell
hagrid
##igans
shith
shiv
##ecd
##ecoming
##chan
doses
##urance
trio
amateur
molly
maze
justification
unto
##aba
##ector
outlet
leia
leaning
##astically
coord
knee
exor
##ibe
brush
clout
clubs
goodnight
adver
##ipse
betty
##pless
partially
residence
appalling
feige
contempt
##athat
assure
defensive
hockey
presume
##rost
longest
discip
attended
ether
reth
retard
slice
freezing
survey
projecting
sunflower
##eller
magik
curiosity
mommy
excal
12th
conform
confuse
bloke
household
essaywrite
bullsh
memorable
propulsion
babylon
barg
rides
lotr20
franken
destroys
ahathat
welp
detroit
distingu
luv
centered
shutter
corrected
jacket
astounding
addresses
canadians
sickening
camps
surviving
colored
colorful
175
involving
sandler
fitz
ethiopians
conversion
randy
screening
##twist
suspicious
sums
cleaner
baltim
retweets
challenged
altitude
clickbait
eternity
struggled
rays
##egranger
separated
milesmorales
independence
woah
originals
mondaymotivation
decorated
dressing
darling
olivertwist
dipl
strawberry
vaers
consumption
mechanism
relaxing
aiming
inherit
dumber
##marketcap
distributed
patriot
phenomenon
prosecution
subtle
tolerance
steelbook
hottest
climatechange
clinical
improving
octopussy
haunted
glvee
pirate
awaiting
katie
aquaman
anticipated
bragging
resurrection
storage
libertarian
persevering
filthy
##jkrowling
livestream
tarnished
squeeze
howlcity
gerrymand
greek
cinderella
gospel
merchandise
##ethemall
jubilee
##eexotic
hermionegranger
climatecrisis
javascript
5k
93
bip
cad
ditch
fc
fdr
jj
lum
mothers
rit
roo
raz
rud
rural
sassy
tsh
vind
##uv
##ea
##name
##biz
##hou
##gp
##93
##911
##46
##qp
thewitch
##orms
##omir
inetongue
beam
##iduous
forge
##amask
shade
chin
sov
trapped
##unny
ama
ambit
##gel
alm
##ctr
no1
donny
lever
seuss
knives
##ansas
plumb
usage
bra
brooks
dispro
disorders
cargo
drones
reduction
quoting
##bean
harrison
##ensen
downcast
underlying
deciduous
persec
markers
fundra
yeh
yelling
phd
networks
christmascarol
maxwell
##keskywalker
obam
superv
favs
monkeys
hardcore
##working
respir
greta
instr
discusses
indiana
relation
##ofs
confeder
shortly
restore
spidermanps5
omgggg
inclined
excluding
facial
accountability
audition
latitude
joey
lukeskywalker
immutable
murdering
gays
drawings
bcz
arrival
authorities
wolverinu
portug
grande
wastebasket
##ageddon
documents
narratives
confirms
universes
legostarwars
streamed
legitim
##ahaha
witches
kara
bedroom
scarem
toronto
angela
uganda
circular
hosted
unreason
analogy
chilling
gangs
consistency
oceans
honeybee
##adoge
departed
portrayal
faux
bradley
shelters
disappeared
outrageous
chooses
orbits
skilled
taboo
douchebag
dependent
mahjong
ought
yummy
receptionist
enforcement
devastated
devastating
antibodies
lucasfilm
footprints
dementia
doodle
##harrypotter
cabinet
kristen
statistically
valentine
unleashed
regulatory
facelicitly
obscure
nebula
kanye
maurit
ludic
adapting
parallel
orphan
quirky
fiverr
inaccurate
velocity
straits
obnoxious
spidermannowayhometrailer
excalibur
glveeawaay
2x
ald
aver
bash
banger
cite
dale
dio
eats
fud
fishing
gaz
june
mong
n1
pts
ranc
sj
tis
tanger
ufc
v2
xox
##rogen
##max
##mars
##cist
##dan
##bug
##8f
##got
##vm
##erie
##onth
##arin
##iscus
anonymous
inability
inhab
whack
##utical
##aceutical
stain
##artney
##chem
##chair
sofa
##unes
goll
gofund
sued
spong
rooted
##ects
##ected
lem
leap
plaid
brat
britt
agencies
lookin
##moore
redef
ima
guards
##ichat
reset
gothic
##issipp
##ensible
downtown
bestselling
mayhem
##new
deflation
##proof
yearly
collapse
##ordon
masked
accla
##grad
booth
corre
##ocy
##ocaly
filmtwitter
syria
harrypotterreunion
##uthor
farming
wordle
curve
warren
steak
snl
merlin
paragr
shortage
##cont
tommy
##team
deluded
faceloring
marketcap
paperpay
inclusion
misgender
cex
selfie
freud
valued
paste
versa
subm
certified
affair
horribly
horrendous
peacefully
cultures
landscape
sellers
erotica
critically
critique
technique
techniques
addressing
denzel
##entials
homic
lifted
punct
particles
furry
24th
cinemas
predicted
competitors
savior
nyna
nonsens
rabid
theatrical
divine
protestors
affecting
1999
1992
##aaaaa
ranking
lionwitch
opera
strateg
matches
tolstoy
oddly
citizenship
illustrated
cracking
surgical
fuk
participating
tyler
aggression
##burg
aimed
anthology
stressful
illegals
pancake
hanks
ccsd
galacticstarcruiser
frustrated
sequences
translated
revelations
faceanded
boosted
intimidate
ww2
tablet
bluray
pregnancy
atlas
reinst
rapidly
pencils
compassionate
flavor
occasionally
ouch
wiki
carrie
analyt
jacob
transparency
##kkkkkkkkkkkkkkkk
demonstrate
involvement
##republic
##layer
converted
scarletwitch
forbidden
##hesive
metaphor
affirm
##uttering
assessment
##better
tutorial
jinx
cotton
manufacturers
pseud
aboard
underestimate
##asterncon
wonders
spooky
dextools
candidates
frankenstein
baltimore
mauritius
paragraph
3x
68
61
9pm
bn
cus
dh
fx
fare
fang
hatch
honda
iii
km
ki
kirk
lec
lang
lighter
moo
mens
nf
nh
nike
nooo
rp
rack
vend
vsc
✿ฺ
##rine
##rons
##ughan
##mith
##pack
##page
##cow
##nation
##a5
##a9
##found
##fors
##lors
##bul
##hans
##718
##gift
##08
##4tr
##jin
##jones
##2c
##2b
##inch
##oni
##onna
##orac
anecd
##omance
indu
##icism
rever
heels
styl
##igma
##ece
chile
##imoff
##terror
##allas
##andth
##andden
asians
meow
##ighty
amusing
alloc
moaning
spill
enters
##loading
willis
##aste
seal
cozy
manual
##intell
grape
scope
crust
herd
heritage
newmusic
newmutants
dru
backers
##007
nftdrops
##azilla
partly
intend
reserv
prez
skins
contains
thrive
defido
preserve
lasted
lifelong
homemade
infam
infring
##ighth
##shi
discourse
boards
kidn
retrog
buyback
sweetheart
minors
ministry
surge
askmichael
absor
batmobile
contrast
edm
##phones
produces
stupidest
ruins
extensive
glove
territ
##version
galad
gendered
claire
antiv
exclusion
researched
titled
urge
urgent
massac
breaker
entirety
milit
begun
couldnt
arrows
majesty
violation
coinmarketcap
distant
##network
flew
erotic
norms
requested
murderers
nftartwork
lords
judges
beatles
grandmother
productions
touches
rule34
lacks
##obama
criticizing
iceman
fatigue
traditions
candles
mirr
weakest
##boxing
machines
blindly
diamonds
##rrr
nuance
accuracy
describes
mondaythoughts
evolved
darn
significance
dominate
guidelines
cyberpunk
29th
motivated
shoutout
athl
injury
boycotting
##semble
resolved
gentlemen
prosecuted
db5
fifty
rioters
arrogance
occupation
occurred
dismissed
earnings
deflecting
compromise
emerald
slept
stirred
passports
disguise
millennium
scifichat
pearl
pharmaceutical
unemployment
zealand
initiative
hibiscus
inhumans
rebuild
eliminated
elephant
refugee
reusable
arbitr
vettel
seemingly
scrolling
outdated
wewant2
soviet
almighty
nynaeve
lionwitchwardrobe
##anddenzel
askmichaelanddenzel
2a
2k
350
cking
das
dys
deez
ella
fisher
gond
gta
hq
hong
hitch
jung
kend
kicks
lc
lick
lens
lup
mend
niece
pors
peek
ruff
s3
slo
tad
tactic
vault
vanguard
wag
yan
yoo
zoo
zacks
##uper
##comet
##lot
##kov
##dh
##dies
##b8
##bad
##bone
##hour
##jay
tha
##inous
##instagram
theho
theflash
##anna
##ares
##arity
##rev
##etta
##ican
itv
wheres
##stery
##alia
##utor
##acey
stall
stairs
forum
face3
shaz
##chomp
##ims
notch
priest
proust
asc
##unday
##unner
frig
##uscript
roi
likewise
noone
unm
donnie
##lover
##astian
mana
manuscript
plush
##orted
clots
seeyou
##inde
blender
moviere
swiss
twe
adul
cary
eyed
backstory
imax
imbec
offenders
vegas
##days
##livers
harvey
##ensions
stripped
decline
##eeling
descend
longitude
corners
kiddo
whitepaper
slurs
secured
spelled
##laib
simult
simulation
complicit
metoo
shiborg
surpass
sunny
capcom
##ella
##maids
insign
insuff
acdc
mindful
excessive
questioned
morrison
extend
glock
terribly
viewpoint
respects
##ombat
catal
crosschain
##ippy
kisses
electrical
volunt
creations
distancing
credentials
lando
erad
wolves
foods
garage
dragging
autop
##cribe
referral
##adesh
18th
judged
personalities
mastercard
palm
palest
puerto
##olls
samanth
vaxed
##www
venus
faceressed
nyt
despise
##letter
presenting
pulls
##anukk
buffy
processes
polls
pedd
ebayfind
scripture
cooked
cookies
##rights
##2e2
roller
entitlement
nicer
zep
complexity
maryjan
evolve
1979
neighbour
philosoph
philosopher
gangster
jewel
365
accomplishment
substitute
tribes
deranged
mccartney
academ
mummy
louder
vaginas
vampires
cislaarmy
methods
faceanding
flopped
bleach
zombies
multiplan
leonardo
dbig
##build
##finance
uncannyxmen
volunteer
rivian
incentives
berlin
scheduled
isolated
toddler
##adventcalendar
gaga
supercharger
ethnic
slayer
grocery
negoti
mathematics
ambiguous
jagu
vapor
elitist
oblivion
neuralink
unusual
marshmallows
margaret
destructive
akeila
nftmarketplace
##hulk
thewitcher
scaremongering
unreasonable
ludicrous
nonsensical
wewant2live
moviereview
83
84
bour
bowing
dough
dms
ecomm
gqp
hathaway
jama
kenshin
lect
mish
mma
mfs
nw
nam
nude
pent
puss
pork
pawn
patel
rm
tee
tina
tlaib
ux
uae
vic
vfx
yaf
yemen
zu
zach
zipper
##rt
##riel
##mass
##part
##nar
##ais
##fle
##fus
##laughter
##wx
##bury
##hire
##1000x
##2earn
##eration
##erving
##atongue
##anie
##itans
##eded
anton
##omi
##omination
inks
##ali
stap
stages
shaming
##iro
noted
##term
##andy
troops
##estate
spray
spotted
oror
ornament
loading
unions
unwatch
unjust
unbi
lev
marc
seag
plum
exempt
bride
##herent
blader
scan
##ptic
hispan
newer
sheesh
rightly
redesign
shoulder
starbase
skirt
betting
foster
offence
helen
prey
prepar
afro
##quer
feas
transit
##aximoff
20k
##ferences
thrott
##appelle
artworks
##iano
flashing
talents
desires
hopeful
##alem
ohio
moonr
mississipp
boe
boil
##iterate
listings
hardship
slot
slander
complet
instances
indians
indirect
todays
reasonably
##ravel
stepped
aca
breast
snark
damian
damaging
wishlist
futures
relevance
##phia
spiderman2
faceeriments
cheering
proposed
babyshibainu
barista
##ewatson
refuses
testic
##riet
calc
sonja
suitable
youtub
501st
bombed
thrusters
##heist
sciencefiction
erm
garchomp
mentor
jackass
romania
deepfake
campiness
receiver
removal
threads
grandpar
grandchildren
gambling
russians
letsgo
citation
danielrad
blogs
suspension
streams
legitimately
##strong
robbing
throwback
discovering
scripted
kylor
thrillers
istandwithjkrowling
boomers
70k
##guided
captiv
hosting
unlucky
dresses
cracked
honorable
influencing
rumor
synth
rebutt
replacement
##ovie
displays
##holiday
punched
hobbies
mccon
ambass
trucks
implies
smells
adsb
functional
ccp
axe
xrpmen
lazenby
trafficking
interactive
##finite
bummer
waters
loyalty
hedge
pirates
optimistic
cliffh
##funding
proceeds
kittens
##battle
lewd
lewishamilton
flipped
dinosaur
reproductive
ethnicity
marxist
disguised
##superpets
cmworld
indoctr
enhance
waxing
##business
discredit
presumably
enlighten
positivity
##amazon
autonomy
monopoly
xmencomics
wastel
topps
inconven
testimony
dimorphos
debunked
intolerant
irresponsible
combustion
gerrymandering
gollum
gofundme
correlation
seeyoufuck
autopilot
##anukkah
maryjanewatson
unbiased
mississippi
kyloren
0cat
apt
bm
bff
bise
bacter
dag
dallas
fak
fathers
gum
goooooooo
hv
hanukkah
khan
lars
mol
nbc
n911
pause
pits
sang
tp
td
tir
uhh
venez
wah
##rag
##ua
##uated
##pieces
##tes
##cor
##fit
##first
##lives
##lane
##daughter
##wind
##xy
##7d
##็ต
thespider
##oning
##oubt
##arios
##iters
##etnam
##omer
##leen
##ico
behold
reed
reass
heath
formed
haul
faceenses
shin
##opic
chlo
##christ
noticing
liq
##olete
aslan
mez
##istgroup
spade
##usalem
coma
dept
ungr
conj
##apo
segment
exh
usern
brow
bravery
clamp
##india
disasters
blamed
scab
crt
crooked
sway
twists
adress
drac
drip
drarry
wrath
quo
persist
vel
overre
overhaul
partial
reson
harriet
stroke
besties
lotus
funeral
##umph
deflection
play2earn
emails
blackad
blackcat
masking
invention
invinc
slick
##ancer
repet
bashing
basics
recipes
ideals
##atoken
cryptos
projector
schrod
reluct
mustread
insom
batgirl
warn
##bbit
##bbie
confron
snatch
bloom
houseof
houseofx
##ggg
spidermanps
singers
extract
disneyland
misery
apocaly
refund
costing
vietnam
existent
learns
freaks
safu
##mmm
lmaooo
visions
visits
ordering
salad
blocks
fearful
audible
audacity
electronic
typo
depict
2003
penises
michigan
silenced
norman
technological
informative
referenced
estimated
doxing
cardano
scenarios
muted
skyrocket
obsolete
websites
entertained
burr
symbolism
sufficient
philip
motherfuck
reaches
summers
crowned
davis
teaches
yellowstone
announcing
1997
1990
##aaaaaa
robbie
miranda
polluting
purposes
accordingly
sanity
jerusalem
combine
wandam
##undant
bothering
softs
heights
accurately
internation
jonah
grabbed
texture
dyor
malicious
##streamers
decorating
progressives
semester
1970
merrychristmas
encouraged
appealing
##informed
advocates
rewatched
efficacy
warnings
chaotic
rosie
departure
quietly
functioning
mythology
cheaters
gutted
inept
transformation
frustration
sacrifices
egot
atlanta
gathering
dawnofx
pleasant
##wanted
outfits
mpdc
misunderstanding
neurological
principal
censorship
societies
indicator
bahrain
tlj
triangle
appease
appeals
intriguing
resurrect
simpson
enthusiasm
fortunate
groceries
sebastian
substantial
terminator
motorsport
tennis
inconsistent
siblings
starwarst
retrospective
dolphin
whiners
wattpad
dismant
ohmss
orlando
rebellion
sponge
gondor
shazam
unwatchable
bladerunner
moonraker
danielradcliffe
rebuttal
bisexual
n911dc
bens
bachel
dak
gg
ion
jelly
kool
kahn
lann
lecture
marth
mps
nm
noo
naw
pb
pending
pacing
pills
pension
pione
sb
s1
uc
wives
yor
zzz
##meme
##pi
##painting
##okes
##c7
##fp
##dah
##dock
##xon
##bius
##71
##500
##42
##zn
##กซ
##น็ต
##ลิ
##เน็ต
##ฟลิ
##iner
thed
##lli
##isers
##reation
##stark
beware
onboard
relying
rewrite
hai
shen
##aders
chant
notor
libt
negl
##anded
asym
tripping
meph
maps
##essa
rover
orth
depl
worsh
unite
unmas
unroll
unboxing
uninformed
##lok
conced
marple
##asting
seper
coc
smoll
smiles
##ements
##orting
##reater
disqual
crushing
##ptomatic
time4tr
twel
advers
adrian
##actus
needy
##ffe
##fff
onlyfans
nftphotography
foll
quidd
##quarters
harmed
realm
downhill
##ultiverse
charitable
throws
maythe
moneyheist
##msworth
whichever
##neyp
collateral
commie
endure
infant
evac
blacklist
awaken
##shire
missile
accum
accuse
##grounds
attending
invaded
slop
slip
highs
findings
surfer
relent
##ofr
##glas
magically
damon
eds
lawn
##pholes
pursuit
hubble
##conn
possessed
ruyi
gloves
galax
ceiling
deadline
dickinson
holmes
wallpaper
faceectation
viking
##taire
freethemall
senseless
pastor
accepts
begreater
devoted
affairs
commented
turbos
welcomet
11th
deme
idiocy
natives
2000s
articulate
distinction
renewal
garry
dragged
jackman
diary
diaries
referencing
estimate
located
mando
99c
motive
140
reminding
cowboys
drivel
battlefront
confirming
feeds
benj
criticized
grounded
programme
1998
1994
pedest
hench
weakness
shocker
kickst
purchasing
subjects
escal
1987
lgb
twitchtv
moronic
angeles
lindsey
wesley
##hopping
##nfts
fraudulent
faceressing
exercising
readerscommunity
manipulating
artistsontwitter
wisely
administr
dominance
breaths
juven
yessss
yessssss
##people
dumped
tribe
devils
ambul
implications
illegit
bayc
##project
injected
satisfying
peterparker718
หารnetflix
หารเน็ต
reckless
homophobia
unrealistic
##birds
clinics
tortured
venture
paranoid
indicates
divorced
loopholes
nbae
flipping
deployed
##disney
lasers
vertical
jpeg
impeachment
remembers
dicaprio
lobbying
liverpool
anchor
babydogearmy
refresh
entrance
enterprise
volcano
solananft
constituents
pyram
rethink
xoxo
deflationary
acclaimed
simultaneously
insignific
samantha
yafantasy
spiderman2ps5
grandparents
letsgobr
ungrateful
username
houseofgu
spidermanps4
wandamaximoff
##กซ์
##ฟลิกซ์
asymptomatic
twelve
quidditch
หารเน็ตฟลิกซ์
2d
5pm
72
750
900
bore
bontongue
c2e2
dice
dool
dnd
ee
fis
fence
fkn
hushed
io
kib
lag
luffy
mant
null
nudge
qanon
raging
sits
tasm
tanks
vine
vip
vhs
ware
x2
￣￣￣￣￣￣￣￣￣
##ube
##mies
##making
##pen
##pel
##c5
##cup
##a4
##avengers
##wear
##bic
##bread
##billion
##brew
##hot
##hog
##high
##gee
##gins
##vably
##1q
##68
thy
##inine
theolog
##anes
##arming
##orig
animes
angl
##acht
ingram
whoops
##alization
rehab
hears
heughan
hemsworth
shane
##entious
chand
chips
chappelle
lib
##tha
##thanks
##urai
##andthew
trope
trades
##unn
canned
##umper
mole
fried
##uela
abiding
abomination
node
pew
leaks
##ifters
##aka
seas
coaching
codes
##endgame
byr
pluto
extern
exotic
brows
clerk
seeks
granny
##osplay
##osha
crus
cries
crooks
swan
adhesive
drstrange
offices
persona
##issy
applying
harold
bookstagram
strains
realizes
contag
2049
##aches
fla
flush
collar
signature
hof
##ordor
lasting
emission
blackauthor
moons
##drawn
##shan
##share
bollywood
whitehouse
believers
kinderg
freejo
##accine
##unched
farmers
farrell
shibacoin
hella
indul
relatives
courses
##mystery
warp
acry
##bbc
headache
momma
speculation
pumped
edgy
##ggers
sociopath
shareholders
mattered
morbius
extinct
directions
refute
##aptor
writings
##ego
tvc
tsun
catgirl
promotes
copied
005
messiah
celeb
##asaurs
inflated
##umental
arrowverse
voltaire
latte
deputy
creed
equate
silhou
dickensian
romans
daisy
astroid
fixes
technologies
2500
snowden
writerslife
paths
risky
homecoming
beneath
masterpieces
hoped
174
palace
avengersendgame
punks
peterson
##eshit
observe
gamest
240
meantime
despair
towers
summary
corrupted
buffalo
achieving
tourism
1996
occasions
senators
rhony
pissing
22nd
ranks
armageddon
bonkers
##ifiable
homelessness
1985
squidgame
willingly
laying
temp
bemilcoin
##valued
infectious
switching
umbridge
##borough
hosts
licence
##attoo
faceressions
accidental
participants
manslaughter
lunatic
tunnel
bodily
saitongue
##american
##2d2
praised
castlevania
vastly
measured
wiped
conclusions
dispute
screams
declared
rogermoore
precaut
injection
resolve
orbiting
##iiiiiiii
dynamics
##llllllll
gooooo
dbz
##conscious
##planet
unbelievably
assassin
photoshopped
tossed
occupy
frequency
##humanity
hottoys
nostalgic
thelast
convenience
undoubt
##smith
feedingamerica
lynn
mtx
facelosion
niche
nicholas
demographics
pulse
atrocious
celest
betrayed
wsg
segregation
orientation
sweater
##cooncity
assertion
instructions
lazarbeam
dazzler
icu
overturned
reimag
enslaved
##britney
atheist
heterosexual
masturb
unsubs
pudding
##quiry
components
bookrecommendations
milestone
inflammation
##oraccooncity
infamous
antivax
wasteland
chloe
invincible
schrodinger
seperate
time4truth
insignificant
houseofgucci
￣￣￣￣￣￣￣￣￣￣￣￣￣
kindergart
freejoeexotic
67
aeros
bard
cord
dd
dre
dopes
ebon
farts
fetch
hank
iow
jc
jussie
kang
kkr
lust
lest
lul
nb
pam
pale
r2
rou
ration
rene
rbr
rounds
r2d2
uber
wt
waff
yee
★amazon
##rans
##rup
##mong
##mons
##pable
##pider
##pread
##punch
##pelled
##cd
##creat
##cases
##culture
##nu
##nis
##fb
##f9
##fere
##free
##yan
##wa
##bod
##binary
##inth
##erce
thef
##only
##oux
##eda
##otty
bees
bearing
##alt
heating
shitt
##enth
##ilver
##artg
##irts
doin
negle
asinine
trooper
butcher
##una
##unks
##eard
gos
goku
##ules
spoon
abhor
abroad
justifying
##ctic
nod
noah
looting
##inkle
##abil
energ
##ection
uphold
willow
##apocalypse
leather
seeds
##endously
##ems
mane
manh
exod
brakes
clut
client
blend
grit
grifter
scru
croc
goodmorning
tease
teasing
starbucks
prequels
changer
##quate
bookmark
lethal
##ailand
contents
contained
chara
perrin
assured
phob
suppr
supplies
desk
desantis
##comed
eva
##spaces
awakens
##enezer
remix
corps
ethical
humility
##lington
pretentious
conscience
defines
eps
##nerd
capability
##gerton
##screen
cloak
insinu
congressional
regist
acid
headquarters
sounding
humankind
##pson
##ggles
newsletter
##teen
##boards
memor
barn
argued
shrink
ruled
oppose
misguided
psychopath
psychiat
antman
nonbinary
##rets
##retion
poses
wallets
existential
walter
facil
00am
formal
suckers
admits
maddie
hamiltons
protects
##enews
distr
distress
norris
locker
rises
risking
immoral
daft
geology
queue
condesc
arriving
homie
##zzles
##bolic
michaelmasi
palpit
##kkari
totalitarian
crimefiction
extremist
europeans
prayed
utopia
prediction
##withyou
slowed
##leton
appearances
moderate
theatres
bench
plotting
positively
subscriber
processing
wildly
traders
altogether
contacted
connecting
connections
hospitalized
employer
employment
##cules
mixing
contributing
##hammer
scammers
1983
1980s
agendas
strategic
jailed
assaults
##castle
knights
templ
grabbing
colonize
circuit
##guy
##guard
3dart
##borne
detected
poetrycommunity
tags
knocking
applaud
pizz
mortality
woody
1960s
magnum
dominating
disliked
nickname
nurses
popculture
pcs
dumpster
tonystark
cyclone
remained
rami
predictions
hobbits
motivational
constructed
crowded
altering
##crypto
eighteen
shambles
tamil
ellis
satisfy
sponsors
baiting
goooooo
choreographed
eliminating
##drawing
##healthy
clinic
appointed
giftidea
fundamentally
javier
paradox
automobiles
scholar
chemicals
recycled
rampant
technicality
olympic
gadgets
simpsons
bruised
perceived
ikaris
tremendous
jeddah
tmnt
homosexuality
##adelphia
triumph
evidently
##hunter
travesty
disregard
precedent
antisemitism
diagnosed
christmastree
hickman
sideshowcollectibles
approximately
oregon
surveill
treasury
alfred
intersection
deposit
isaac
brigade
plumbing
respiratory
##hansson
thehobbit
ebayfinds
multiplanetary
jaguar
illegitimate
letsgobrandon
doolittle
neglect
exodus
5cat
baf
caf
dere
faw
gsu
hans
jb
kh
lau
pour
pony
ppe
rivers
sap
sings
tins
tends
ub
##rs
##tick
##iq
##iap
##nots
##fh
##low
##lical
##liness
##warm
##b5
##bes
##bart
##1d
thug
##anigans
##engl
##iton
##iture
##itudes
##asant
##asma
##leans
##icating
##stan
##alph
##utors
##idas
hem
shifting
notifications
##allery
prix
##onews
##ando
##andra
tran
triv
##unts
cane
goin
spying
spawn
sperm
spencer
fries
roots
rogers
comr
##acker
unim
outlaw
mari
marcus
whos
arise
prolly
##orton
clay
clues
##heros
bla
blas
crushed
##ogical
handing
handel
handmade
twit
drastically
needles
needless
bubb
skies
guided
quicks
greats
muham
overnight
intric
##bewithyou
paycheck
##odox
booksh
booklovers
booktwt
##ahh
##ountain
felix
##fel
##itto
happythanks
downs
lotro
lightly
takeaway
##pring
desi
compound
hob
endings
##anging
ohhhh
songbird
disconn
corny
inviting
slapped
raccoon
freeperson
10m
storyt
boromir
mines
minions
metamask
killings
consume
raises
##itters
projected
batwoman
stepping
brew
sniff
snipes
dammit
weekends
dogey
prototyp
protagonist
squir
eleg
memorial
mouths
omi
imagin
halving
generating
shred
hipp
illusion
noneth
casted
costner
urg
prominent
servants
socialists
walker
##ecoins
admired
horrid
##playing
sitcom
verb
verbal
musicians
dao
##idesquad
estim
replacing
replica
doctorwho
reprim
debates
debatable
999
proudly
faceloitation
gerald
philadelphia
publisher
battlefield
appearing
##ocracy
innovations
fooling
divisive
insulted
encanto
mints
kyler
##ofthem
scammed
snowflakes
##hhhhhhhh
rapture
clarity
julian
leagueof
symptom
determines
eagerly
cracks
pillow
deduct
climax
1977
sixth
gandhi
manufacture
360
historicalfiction
ipad
rejecting
nsfwart
appropriation
dodgy
##758
346
structures
bulan
clonewars
fueled
misinformed
patriots
##films
navigate
simpler
bounties
grammy
deception
rickman
insightful
recasting
untouch
funnier
conveniently
##naments
distracted
##season2
intimidating
memoirs
stacked
##wwwwwwww
anticipation
institutional
olympics
concentration
fortunately
pulp
##lady
bruno
pacific
gilbert
##↓↓↓↓↓↓↓↓
biblical
stamps
peasants
eccc
prosperity
vincent
outdoor
immensely
wannabe
receipts
20yearsof
monitoring
overthrow
##johnson
distinguish
ritual
razor
rancor
##holidays
venezuela
lannan
martha
welcometoraccooncity
benjamin
acrylic
undoubtedly
condescending
palpitations
freepersonalization
nonetheless
78
8pm
91
a5
aired
bac
bake
cv
cau
ditto
furn
fuss
git
gast
gordon
hud
hogw
iver
icons
iartg
jeth
kan
lon
lis
lasso
mour
marty
nipp
nathan
pve
rer
ras
rust
sans
uhhh
vouch
wd
wade
xof
yog
yacht
##rim
##mont
##pc
##iqu
##c0
##cinem
##a8
##avers
##aii
##fighter
##know
##bott
##goth
##van
##09
##jp
##orry
##lll
toons
##reced
##asi
##asil
##omical
##lem
##lear
##steel
ons
rebels
hebrew
stinks
##amet
shades
##oportion
##addict
thisis
##illustr
doxed
liu
prote
priced
soho
tram
##estation
melo
##istical
amd
amir
##ulisting
moira
fren
frames
##essions
delivers
unhealthy
pepe
enact
enrich
maria
sevent
smashing
whod
ari
ariz
plag
clicks
hasbr
grint
##depp
##develop
adidas
backup
backgrounds
rightfully
rocking
wrench
##avin
##avan
##avor
offend
firefly
preaching
##issance
crybaby
werewolf
harming
nevermind
skinned
realestate
##ilde
lotta
##awards
##appropri
##ometer
takeover
interrupt
functions
fled
flam
flame
fluttering
collins
deskt
polio
##cloud
blackauthors
dcu
counted
##eled
##ussions
aws
remorse
obamas
discour
seasonal
retain
slowing
raced
repent
taxi
tweeter
recreate
##outheast
indicate
hunters
##arthy
##ello
absence
magnes
lefties
1938
banking
excess
humanitarian
##weed
earths
pumps
##yssey
doubling
doubled
douglas
addicted
dogefather
dogezilla
guessed
babydinger
profiles
##swap
##swords
ruler
continuity
annih
##return
##retto
subscriptions
coping
affiliate
hourly
welcomed
110
30m
fearless
prevented
speakers
brainer
verify
musician
norway
weirdos
dads
autograph
romcom
diagon
##cribed
denmark
burner
130
sickness
commonly
concur
hawaii
communique
hopkins
mutate
terrorizing
brilliance
logos
beneficial
coffin
samuel
rapes
##ospher
streetbooks
sorting
ainulisting
connor
lawsuit
##markers
blogging
spirits
similarly
stickers
ebenezer
##from
nominations
groundbre
retweeting
speeches
weaker
karl
casin
kenosha
##secrets
blinders
flashback
purposefully
operations
woohoo
1989
propagand
julio
goblins
texts
solidarity
woe
qualities
ripoff
powersofx
tagged
nae
suicidal
participation
26th
butterbeer
tuning
franklin
papa
rena
renounced
heavens
361
olig
shields
shielding
settings
urbanfantasy
transitioning
primarily
chucky
screamed
jealousy
veteransday
delightful
sabre
##legacy
axie
calculated
alphab
cisla1000x
trendy
navig
bleeding
crafted
premiered
interactions
##buy
infinitely
tolerate
adoptdont
sprint
##ulsive
incompetence
31st
##agnar
codvanguard
institute
awaits
unpreced
narcissist
riddance
receptionists
authoritarianism
spamming
arabia
##willing
districts
odin
odyssey
bolt
superchargers
intrigued
prodigal
columbus
columbia
extras
monetization
dnf
##anthrop
alaska
permits
rendered
whisper
opponents
docking
obstacles
obtained
assemble
gatekeeping
mushroom
callofdutyvanguard
abusers
kotor
dcfand
passengers
continuously
settled
immersive
cohen
tubes
##jamesbond
microsoft
einstein
##ausible
butthurt
adjective
regressive
convictions
futuristic
exorcist
ptsd
sjw
pseudo
##cowboy
mirrors
##ferencesoutheast
shenanigans
mephisto
ruyiwallet
byrne
gamestop
muhammad
happythanksgiving
xofswords
magnesium
groundbreaking
adoptdontshop
220
5758
6b
666
71
7cat
a1
bury
bussy
baked
cited
dia
diving
dunk
dwell
dagger
ecom
ecl
fm
faa
gown
ginn
iir
ilove
lending
lining
mck
mumb
p1
pals
pippin
rave
sided
ting
tread
ul
ves
vlad
wound
witty
##ras
##rie
##rus
##rams
##mt
##mect
##matic
##e5
##e4
##oge
##ni
##non
##f4
##link
##lists
##lnu
##yx
##kg
##kum
##sk
##sing
##dits
##woo
##wol
##worm
##b9
##bman
##bang
##gur
##great
##gang
##geek
##vv
##98
##6th
##31
##zill
##2000
##inar
##inqu
##armed
##enance
##itoken
##itzer
##etz
##omode
stad
##ldolls
##opy
##oped
##ophobe
##vern
##ecomics
##imps
##illian
doe
##uro
##urable
##olar
##olia
##pppp
tropes
##istically
goss
modu
sphere
roam
rochester
compr
orleans
##ctv
nob
noon
lod
locom
loldolls
unple
unwilling
thanking
##iva
levi
arsen
proclaim
knuck
everest
manof
managing
manchester
plausible
##ibuster
bromance
disneyp
granger
grants
groot
griffin
scored
lovecraft
needle
redeem
skate
skipped
##avity
##placed
quitting
mudd
showdown
partisan
flock
reserved
afshan
##ods
harvest
bookofbobafett
##opez
##cruit
##ulls
underwater
##athe
interven
interfi
interrac
interfere
pert
marked
owed
owens
yel
flames
collide
suppress
badge
endured
infact
fined
americane
terra
misspelled
netflixwe
superboy
kidman
repeal
filmmakers
xmenmonday
literacy
##iocr
indy
indication
thumbn
##tooth
regg
regulate
regener
confront
merits
keir
keaton
sparkler
clearing
morph
##ooooooo
gloss
facelores
nightwing
generator
stonewall
illum
illogical
misd
miser
apost
psyched
continually
narcos
freem
##tubman
pictured
copying
pastors
facility
##mmmm
messi
destroyer
##ltongue
hugely
horrors
30k
##forming
spikelnu
figuring
symbi
madison
typed
holidayseason
protections
brainless
violated
natash
caffe
shoots
renewjatp
locking
centers
##nbc
circul
ignores
shutting
requiring
autumn
adaptions
ladder
camila
pander
170
jesse
burger
angu
angles
sams
disgust
40k
narrator
provoking
husb
fooled
1993
##engine
##watching
recognizing
##writers
cheapest
casually
apologetics
contributes
sanct
increasingly
defenders
nuke
bosses
##daily
privileges
malice
innocence
execute
hostile
liberalism
exercises
audiobooks
improvements
soooooo
climbing
birdman
semantics
##lantern
splash
magnitude
dramas
dramione
reflects
bucky
nftgaming
polygonnft
lilo
rosam
tplfterror
diesel
hormone
hancock
ricci
severely
traumat
constantine
gifs
sponsor
dogelonmars
perpetr
##wantjatp
gallon
marshall
satanic
occasional
overlords
##comicbook
unpunched
hysteria
tumblr
isolation
##umni
throats
patterns
withdrawal
islamic
kinetic
uploaded
prodigalson
eloqu
perceive
subpoenas
segregated
statistical
dashboard
assembly
variations
bingo
aerosp
stockingstuff
popfiguresearch
##thisday
fleeing
abuser
passenger
bilbo
disproportion
##protocol
baffling
dwarf
mozart
carpenter
staircase
accommodate
rashida
kathleen
mazepin
submitted
##foundation
##forsale
ruffalo
##revails
insufferable
palestin
##narnia
hispanic
ambassador
harriettubman
apocalyptic
internationally
spongebob
bachelor
juvenile
nbaeasterncon
thelastjedi
surveillance
tinsley
desktop
unprecedented
dcfandome
iirc
##mectin
module
netflixwewantjatp
tplfterroristgroup
netflixwewantjatp2
aew
bf
baking
bisc
dp
dome
dug
eject
fn
fw
fern
foul
gus
hush
ios
ips
jol
jem
jade
kab
lith
lur
lime
lump
mason
n64
pence
rf
rv
rur
rist
ripping
ragnar
tak
von
vil
vivid
wry
yer
zion
##rial
##uve
##pre
##pic
##path
##tol
##take
##tuesday
##oz
##ovel
##iors
##cond
##cular
##cities
##a7
##aqu
##fers
##files
##favor
##lm
##lar
##lined
##kent
##dad
##dec
##b7
##blo
##hin
##his
##hart
##hyp
##hours
##heard
##gun
##3f
##infinite
##atometer
##anim
##aro
toll
##isl
##acer
##eto
##otal
##iciency
##vella
whoo
##stars
##alon
rect
reel
recruit
hex
stard
forgiving
hak
haiti
hailee
##lda
##amo
##amon
##amine
##entitans
##verted
##aday
##iltr
pricing
##oline
##htaking
sod
wasp
troopers
##estory
yourwater
##earing
goats
##ulative
spie
spicy
makkari
whatt
whatabout
fres
##usal
deer
degr
unhing
unden
unhappy
donna
joan
##aby
enabled
##ouni
##ifact
##ifier
cobra
smashed
arnold
hows
pledge
##ibr
brack
brighter
##irel
clause
clicking
grift
grounds
gripping
##def
##agne
##dern
swat
handy
handouts
tel
twent
carl
redford
redirect
redundant
shoulders
starred
stargate
betsy
##ucking
##avy
showrun
helpless
##beit
cryst
booked
2030
underwhel
christine
##ologue
perks
flops
##blue
desc
compat
badger
endurance
fuckers
##upon
finals
awfully
##driver
menu
remin
remus
##grim
##grint
superfic
superiority
boxed
monty
characterdesign
10s
glance
glimp
##acca
##brothers
imperson
enjoyment
100s
launder
sorrynots
covidv
avat
champagne
curbs
soundcloud
12m
snack
snitch
snacks
advis
entities
mermaids
mcgreg
essayhelp
wholeheart
eleven
honors
tomatometer
chees
morality
destined
##landfort
facelor
publication
##heroes
pais
disneyworld
casey
cease
continuation
naruto
succes
dontlook
testament
stuffed
##riers
catsoftwitter
cali
0000000
hotels
dolly
safest
franco
obvs
subsequ
deval
50s
pickup
cutie
demise
prevents
airbender
hurric
##heim
renewables
##cycle
garrison
sleeps
statistic
shutdown
millen
geography
mandated
colleague
subsidize
##ttt
brands
pundits
grandson
granddaughter
muting
sandbox
mistreat
extremists
csk
wasteful
regarded
philanthrop
breathtaking
melting
tasty
bottles
impactful
towels
province
kindlevella
summon
##eeeeee
microt
wilder
traded
pedos
hospitalization
necessity
web3
bellatrix
flux
demanded
tempor
temporary
bowling
grabs
margins
validate
nickel
captures
determination
##warming
tyrann
stunts
demonic
documentaries
##attan
unlapped
advantages
scotus
audiovis
bangl
cupcake
alternatives
manipulative
synch
##holder
westerns
hacker
pronounce
commissioned
thompson
marrying
##information
##ssssssss
##broken
advertised
thebad
tricky
gigantic
ipo
olivia
derog
selective
##harris
suspected
advancement
hrt
mccarthy
stanley
##ofthering
planted
anthrop
crowdfunding
##charge
declined
vintag
louise
face0pm
professorx
##salem
elliot
maintenance
briefly
sympathetic
junior
comedic
compensate
##juana
quantity
surround
frequent
unrealized
fairyt
krakoan
insecurity
warnerbros
hindu
georges
censored
firmament
escaped
##vibe
weighs
vitamin
dental
dubai
obligation
millennials
sophistic
paranormalromance
honourable
colonialism
migrants
terminology
rupertgrint
empowerment
tangible
cheems
herculepo
##aglefoundation
avenger
dcfood
pursue
endeavors
dividing
maldives
sculpture
teamlh44
bureaucracy
cigarettes
galadirel
kendall
doughnut
preparation
##livesmatter
scabbers
velvet
dakota
cocaine
kickstarter
ambulance
external
contagious
abhorrent
manhattan
registration
quicksilver
jethro
naeagle
renaissance
unpleasant
manofsteel
interracial
americaneaglefoundation
samsung
ristretto
undeni
superficial
glimpse
sorrynotsorry
##landfortsalem
audiovisual
450
6000
92
bos
bands
bailed
bicy
cnft
daz
f2
fib
faint
fighters
fountain
gn
gul
genshin
ikr
jd
jong
jrr
ks
kg
kitten
lax
lined
mig
nach
nano
oun
oof
pv
piv
pint
peel
rushed
sic
sill
u2
v5
vanc
zay
zones
zoe
##rc
##mom
##money
##eople
##tic
##cot
##cade
##fare
##lifting
##kable
##wait
##bay
##bank
##bogo
##butt
##bacca
##hee
##05
##zi
##zone
##´t
##╭╭
tht
thou
thew
##onic
##oult
##atl
##atur
##anas
##enft
##itably
##lless
anesth
inappropri
isle
whoop
##stock
onthisday
reper
reuse
##idences
stacy
staged
stability
withstand
withdrawn
haz
haunt
##seen
##lyne
##igent
##igital
face2
##amus
##adult
chenna
weld
liam
ney
trace
trop
##cey
##ieg
##ieval
##iston
amid
gobble
sug
moot
spitting
spiel
mafe
fract
rogan
rofl
rohan
aladd
##antongue
ornaments
loll
unw
undo
##ivision
##ghetti
convey
leeds
##astrous
##ifig
manor
maniac
plasma
someones
##ibbean
uss
usher
brasil
claw
clergy
clients
saus
disastrous
gran
graves
##dev
##osing
scoop
cripp
nowwatching
handles
handmaid
hercules
teentitans
twats
drain
drax
##ournament
wrist
wright
##reep
starve
##ishes
nftphot
guine
quad
##ichrist
vegg
showcase
firefloki
intu
##being
wells
booking
medieval
##feed
transsexual
stray
skinny
realities
undercover
##awakened
interchange
lolol
##mobil
defo
defamation
##procre
flour
playmobil
infiltr
##rove
moonseries
##elwald
##spot
finances
masse
remarks
##gray
boats
corresp
whitew
monstr
monetary
harden
characterization
bothers
freel
buyer
storytoken
##brand
metab
metrics
farc
ideological
greml
greece
cryptonews
raff
goverment
capabilities
thumb
##btc
absent
##toak
mrpresident
maggie
lefty
curt
cured
curtain
bane
##atherine
snug
##aaay
colomb
##boom
##bole
propose
bara
extension
fairing
ridge
##blem
antagonist
antichrist
billed
deadbeat
##ddd
##2024
respective
ableist
smallville
sonof
lotrmemes
poorer
heroic
commentator
##forward
multivers
congratulated
patiently
electoral
preval
interestingly
equals
shoved
##lerc
fleur
erasing
weirdly
diaper
climateaction
esteem
lads
writerscommunity
resulting
condone
roboc
bc1q
liberties
limiting
##backbetter
approaching
radar
mutations
gamora
beyon
benefitted
pressing
samurai
suffers
intros
sorta
##eredemption
hogwartslegacy
pushes
impacted
provoc
sharia
microp
falsely
shibaflok
##ahahahah
florence
##marillion
##nnn
cosplayers
trolloc
belle
spectator
screwing
23rd
##ropol
administer
troubles
linda
xrpl
xrdoge
sara
caption
martini
horsepower
qualifies
execs
ferrell
cups
reacting
wooden
straws
commissioner
broadway
jenna
actresses
dumping
giga
parenting
praising
imperfect
inherent
koreadoge
beaches
spells
sabot
discriminated
##legends
rarity
unsure
tezosart
pixar
faceosing
satisfaction
spaghetti
hyperbole
##moviemagic
wwii
leonard
atlantic
cosmos
dceagles
perpetual
cumber
overwhelmed
cryptoartist
recycle
incentiv
##friends
cousins
executives
interstate
powder
gadot
adjusted
abolish
tournamentofhouses
inefficient
tremendously
housewife
accomplishments
##matters
allegations
mashup
composition
libertarians
affirming
barrier
tempted
atomic
หารhbogo
dosent
vegetable
lbank
wacky
lipstick
aurum
defundthe
emphas
mitigate
enforcing
dafoe
voyage
xfactor
emoji
aztecs
relocate
blazing
watercolor
jingle
mitchell
##graphics
reconc
adverbs
inheritance
ambitious
fundraising
tangerine
leclerc
##intelligence
druig
arbitrary
lupin
snarky
reluctant
orthodox
silhouette
prototypes
20yearsofmoviemagic
ivermectin
arizona
##ospheric
sabretooth
stadium
gossip
symbiote
ricciardo
rurouni
##favorite
yourwaterstones
spiegel
unhinged
wholeheartedly
dontlookup
bangladesh
naeaglecam
mafex
aladdin
correspond
gremlins
3s
82
a2
boun
bind
buss
cp
cj
cish
citing
cuc
dots
eon
fakes
fert
fanc
fuz
gd
gaw
hump
jai
kun
kombat
lend
lash
lacc
loooo
licking
luther
mx
mik
meryl
mordor
nr
noun
nile
nord
nuff
oak
obe
ooooo
pond
rav
r34
sought
tys
tiff
tables
vick
vita
vulture
スタ
##rition
##riment
##uber
##uki
##md
##mins
##eon
##c6
##food
##fortun
##d7
##wift
##xmas
##b0
##bin
##but
##hd
##hipping
##82
##gom
##v2
##9d
##32
##ар
thn
##eram
##online
##athing
##aration
##orld
##enh
##aca
##acare
inh
##leia
##owell
isp
bep
beaver
##alan
##alies
##iona
recru
stale
stagger
forsale
##lys
shun
shack
shire
##advant
choke
##arted
##cho
##irting
notable
##thal
##urg
##alle
pressed
nev
sober
asgard
trinity
##esting
melon
meghan
goated
subbed
sudan
##uliar
moan
spikes
fringe
abd
ababa
albeit
##ationday
##oread
lok
lois
unst
uniron
unbear
unwanted
jolly
##ivy
conan
uplifting
mare
##iffer
semen
cole
coaster
coherent
##emark
manch
manages
##ardos
thereby
exquis
##ortions
disrep
blair
groom
##again
##ageredemption
swinging
newman
shehulk
##actor
backward
watchlist
elong
##plants
wombo
overdue
helic
##belt
##izable
afen
##quality
feather
servers
##oseman
strap
strive
underage
underne
##ometrics
##acha
owen
playbook
phony
signaling
filibuster
badg
prescription
blacklivesmatter
##gettable
##shield
menop
##grath
muscles
invading
mono
monaco
slack
repaid
freeze
carey
spew
10pm
glue
syd
bases
telly
harrypotterfan
harrypottermagic
prett
starwarsv
complains
womanhood
recreation
gregg
hellbound
cryptop
surger
rafi
100daysof
##gerald
relies
mustard
runaway
wording
steaming
regain
acute
momoa
revision
snakes
sniper
snotty
advised
parrot
##white
eden
peculiar
restored
prototype
##bold
bidens
babybal
trumpet
generative
generational
misand
misinter
comicsetongue
founding
freck
smallstreamers
002
diehard
heroine
horrifying
celebs
30s
30th
transpeople
electr
fallacy
prevail
majors
volat
braindead
natal
peacemaker
##hea
##held
lineup
landings
##cyber
educators
imprison
##ographic
trusting
priceless
smartphone
dais
engineered
##ideshipping
meetings
pathway
arrange
fantasybooks
locals
debated
mandy
cisgender
severus
severity
productivity
puke
frontline
ethiopiap
catches
scientifically
suffrag
cameron
cartel
excellence
excellency
finishes
towns
boardgames
strangely
wildlife
furthermore
sportsman
scrut
civilized
ledger
hospitality
jumps
interviewed
representatives
rhy
captainmarvel
environmentally
westmin
tearing
vibration
wander
utilities
scarce
assaulting
torch
juliet
wok
hostage
warmth
tagging
unlapping
applications
uhm
ashes
digitalartist
co2etongue
fias
rumours
splend
##step
approached
pronounced
libraries
advertise
dimensions
tribal
magazines
chromosome
reunite
worldwideshipping
universalstudios
ozark
behaviors
wipes
inherited
tedious
ukrain
clintbart
reliant
introduces
russel
justiceforlewishamilton
loosely
solanaairdrop
kucoin
pilots
greeting
acquis
acquitted
occupied
deliberate
partnerships
upgraded
bailout
idols
censor
vpn
swedish
dorinda
inevitably
analyze
uniforms
bridgerton
##posts
unforgettable
invalidate
shirley
pixelart
geeks
facelosions
demented
reproduction
##babies
bogus
abolished
lobbyists
regional
ineffective
fulfilled
romeo
atrocities
aspire
hayden
baldwin
nikola
warranty
barton
krypton
##utherford
decreasing
gtfoh
kerri
ooooh
chewbacca
thirsty
disprove
releasethesnyder
digitally
caution
suprose
cuddle
pascal
sdcc
##hawk
dawg
charisma
sublime
roberts
peacock
##katano
shithole
bargain
diplom
vindict
leverageredemption
obamacare
inhabit
territory
imbecile
voluntary
cliffhanger
blackadam
theologian
anglican
crocod
##english
reggatta
caffeine
mcgregor
thebadbatch
derogatory
zayn
sausage
##ournamentofhouses
guinea
##procreationday
farcical
##toakill
underneath
harrypottermagicawakened
ethiopiaprevails
911
bats
bounds
ced
cec
cret
c19
cudd
cillian
dild
dangers
esa
erik
fst
fade
font
ftw
hil
hir
hips
hicks
hbd
ji
jl
kra
lid
laud
nir
nag
nud
nails
nada
oy
o2
py
pw
pab
pag
pains
poured
rw
rly
rah
ralph
sop
sars
ti
tinder
vod
wides
yak
zap
zucker
##rat
##raw
##uating
##pret
##eid
##eli
##tay
##too
##tch
##toth
##tape
##iated
##iology
##cé
##nals
##nape
##a3
##f8
##finity
##luck
##km
##kor
##sum
##bies
##bows
##hamilton
##gm
##gow
##vo
##52
##92
##jr
##jam
##zeal
##ルズ
##inished
##erting
thechild
##oner
##ouver
##arcer
##orice
##enical
##edr
##llas
##rels
##acent
##asone
##asers
##etflix
inquiry
whitty
##style
##alone
onwards
onlines
onyx
reap
hee
stitch
fors
fores
##sect
shines
shuffle
##adog
##econ
##illes
liable
##there
##thood
##theg
##thursday
##themoon
##uri
##urities
printer
##olved
##olph
traction
##iefs
myfavorite
ammo
suing
suited
mold
moba
spur
frick
##usdt
roaring
justics
justsay
##auction
unin
unpr
unpro
peg
peers
pox
outing
gett
##apol
lease
leech
##aky
##oodle
##amel
prosp
wouldve
bran
brend
broth
disadvant
bler
bloopers
gra
groo
grill
##death
scor
scots
scoring
crook
crunch
newcom
##assbender
caribbean
redee
##icker
ski
bets
foil
##pled
quid
##daylights
overload
intact
##oyle
payed
afol
##udy
bookclub
serie
thrawn
underworld
##atham
##appers
lolz
artifact
deficit
playground
madelyne
##bler
##bless
##blance
netfl
poland
starter
##spoken
fines
accents
oldboy
remade
obtu
obese
##lessness
superpower
discretion
spidermen
bojack
attitudes
okl
correl
kidney
kidlit
hards
sls
reporters
sexiest
popul
freebritney
filmmaker
basing
2025
farms
recap
teammates
imposed
impulse
vaccinating
soros
brock
differentiate
1000s
mrbeast
avoc
solace
incarn
incarcer
steinfeld
horde
dogsoftwitter
mindless
wonderland
headset
revival
##irls
mermaid
kev
edges
bullets
##ggle
purse
cooling
##contr
sparkle
morris
destabil
secondly
barney
imagining
delux
argent
gala
ridden
paed
paperwork
illino
apy
psychic
ceos
nonce
refere
##llection
builds
buildbackbetter
##riages
photon
smallest
worthwhile
dolls
facet
facere
developments
cancels
009
messaging
formation
lmaoooo
##forthe
identification
##player
congratulation
congratulate
patent
thruster
thrusting
safegu
nativity
##hearts
##neth
landlord
unfunny
silmarillion
statute
correcting
nftcollectible
designated
searches
trustworthy
ghostrider
labels
lordofthem
doubts
180
1800
googled
novelist
aches
debacle
99p
homer
preferably
pandem
colorado
radi
econometrics
peters
convoy
spoiling
brilliantly
hairs
ridiculously
ridiculousness
companion
soulless
savethe
theron
suspend
visitors
packages
degener
sticky
uniquely
positivevibes
balrog
trademark
pollute
lovesong
scriptures
kenny
princeton
apologist
tenure
vibrant
sanction
flashy
##untlet
counsel
bonuses
harmless
voiced
piggy
carolina
buddha
techrate
scarf
penalized
dubbing
albus
circulation
##guide
conspiracies
ronweasley
mercury
validated
astronomy
sketchbook
gateway
tyrant
frauds
accidents
eager
archives
darks
knocks
##martin
banging
##agonists
giants
aggress
senses
dialog
forehead
transgenderism
jefferson
ensuring
handedly
spanning
assistant
relaxed
##ustainable
highlighting
rental
stanford
courageous
constructive
interpreted
aaaa
dishes
routes
manifesto
shelves
declaring
booty
unnecessarily
##belief
chambers
ellen
interacting
fandoms
mi6
hints
briefcase
farther
hmv
comedies
observatory
conquered
coincident
mahdi
appointments
overlook
overlooked
melted
mamm
insisting
motiongraphics
bountygate
shapes
cannon
cruelty
intimidated
retailers
##zzzzzzzz
theorist
ahsokatano
##austen
abolition
steroid
charlize
epidem
sophie
farmerdogebsc
artificialintelligence
##manship
accusation
##ijing
wspp
gabriel
accelerate
cryptoislandgroup
binged
arkham
discriminatory
loosing
unemployed
decrease
nitp
##amazing
tigray
prestige
griev
quotest
beckins
undermine
emphasis
misrepresent
disagreed
disagreement
diabetes
evaluate
kumar
enchanted
orchestra
xfactions
dehumanizing
##model
##countdown
irrevers
discovers
demonstration
mesmer
tampa
anomalies
##channel
discipline
fitzgerald
tshirt
portugal
homicide
punctuation
analytics
##lorswift
kidnapped
lcdp
porsha
surpassed
catalog
jamaica
staples
ororom
boeing
indirectly
testicles
##ultiverseofmadness
awakening
##original
precautions
kindergarten
iowa
marijuana
blasph
##learning
plagiar
alphabet
##itzerland
yelena
anguished
stockingstuffer
ragnarok
whattoread
microtrans
herculepoirot
inappropriate
reperc
robocop
cumberbatch
defundthebbc
cishet
unironically
disrepute
sydney
surgeries
rafiq
freckles
clintbarton
crocodile
widespread
onlineshopping
justicsleague
obtuse
deluxe
lordofthememes
40s
4pm
650
aussie
bj
bau
bree
bale
cz
cakes
dah
dfi
dances
f9
fic
fow
fking
fuse
gw
gore
gaps
gme
kink
kard
kier
kansas
lf
ling
mh
mim
mul
mia
mince
nab
nato
pest
peck
puff
pike
pins
ponder
piano
rared
tard
tull
tones
tds
vets
vids
woof
wyn
wounded
xo
zor
⊰❉
##rower
##ui
##ubby
##mn
##mail
##math
##muse
##pu
##pete
##porn
##e1
##oct
##oki
##oftime
##c2
##nr
##nos
##f7
##f6
##frost
##lude
##kh
##kie
##sup
##d4
##bia
##boss
##hell
##gc
##03
##jer
##qq
##★★
thir
thier
thailand
##inum
##inf1
##ani
##anor
##arital
##aroman
##enberg
##edash
##llen
toad
ane
##asim
##etto
##omeness
##icle
##icol
it´s
itunes
##vember
isis
whim
whome
##sts
##stitution
beijing
reas
heinous
stam
stacey
streep
forming
##igm
##igious
faceo
faceire
shi
shhh
shaft
##ecast
chairs
##chy
wefight
liv
##uriating
##alls
nelson
tray
butler
##unroe
##este
##iem
megan
suv
##uling
spout
spouse
spiders
fri
##usp
abund
alumni
deed
deeds
debbie
noses
unav
unrest
pey
peaked
poe
leash
##astics
seanc
cob
##iveaways
probs
woulda
manners
brink
brib
brunch
clive
cluster
disson
disarm
disinformation
disbelief
agr
##osc
##osition
sciss
scram
##kshire
cris
cram
crave
switzerland
heros
shep
ado
adren
backf
##ffer
joystick
##ource
stare
##ickers
skit
skipping
nftlaunch
##ucked
##pling
womb
overweight
helm
intensity
##oyale
##agement
premed
##odd
harms
harrass
readily
feud
feathers
##felt
transm
transplant
transcend
##cracker
stressed
stroll
firstlady
downey
bestseller
undergrad
christina
ops
##achi
peril
defy
##ampete
flirting
##blown
##ugu
##ugo
holl
hoot
commies
stopwatch
endearing
belive
belated
lasts
emmy
meanings
##role
##root
##roast
awes
beforehand
##shad
##iewtoakill
obx
supermarket
supervis
invites
shitpost
monarch
retelling
slut
107
##hoot
##laus
harrypotterandth
##brush
classify
classrooms
pretended
starwarsfanart
miner
weeb
metro
##ype
raiders
broker
schiz
governance
epit
relates
##artheid
##today
##rowave
##raeli
ava
aviewtoakill
warhammer
steward
stevie
dogearmy
dogedash
regions
breach
breasts
earns
earliest
##commun
confuses
##rones
##umbles
advances
##wealth
turnout
cola
##angeles
arena
behaving
password
cheater
bidding
deleting
facelored
nightmar
hijack
misread
apo
biases
biography
foundations
dickhead
availability
faceects
stuffing
##trans
urself
servant
cameos
systematic
003
messen
verses
submission
commentators
50th
salaries
amazonprime
esports
ahem
welcoming
metavers
figur
fallout
1500
##ogram
violate
violations
latino
emplo
empath
animations
unfinished
silic
luci
sentient
ern
ergo
improv
trustwallet
astor
diy
deniers
irs
losangeles
estrogen
tarant
campbell
teleport
judicial
approves
portland
masterclass
##office
influences
petrol
closes
domination
buds
gambled
##affe
login
logically
spoilt
##opsy
trashy
normalize
brotherhood
savi
universally
##onyms
buffdoge
wilds
trader
faults
vanessa
witchcraft
recognised
pisses
beds
choked
screwtape
nationalist
##ydoux
raymond
scares
automotive
clarence
independently
pooh
colonists
toyota
pinn
examine
zeus
revenues
##borg
illustrations
integrated
overtook
evolving
decorate
pillows
adamant
adamdriver
deductions
establishing
corruptioninf1
grossing
fuc
1975
attractions
lucid
triggering
azeem
approaches
misogynists
humorous
creeps
yessir
yesssss
##sssss
bucking
crushes
ghostbustersafter
categor
efficiently
deriv
seatbelt
dodging
measuring
economically
tacos
wilted
angelina
sustainability
mythos
hanna
##character
bootl
witnessing
saber
##legion
##legend
reboots
miniature
freddie
justiceforhamilton
peaky
##justiceleague
succeeded
mvp
encouragement
battling
loneliness
vibez
coughing
elder
pitbulltokenarmy
##33e
gathered
girlfriends
reinfor
graphicdesign
tackle
bailey
otd
oxtails
surrounded
bummed
springs
disturbed
transferred
uncertain
flavored
torpedos
admittedly
artificially
architect
stabbed
portraits
isolate
belgian
liners
lampoon
toddlers
cowboybebopnetflix
reckoning
facelosive
neighborhoods
deployment
override
spaceships
ipl2022
##onnery
obiwan
converting
concentrate
allegory
mashed
bluesparrowtoken
conducted
entrepreneurs
mkар
rubber
aligned
scumbags
ceremony
brickset
dazzling
vocab
ovaries
remembr
autonom
selves
revisit
conceived
mercari
rsvp
rodgers
cynical
vigilante
rcb
droids
##⠀⠀⠀⠀
endorsing
kurup
tombstone
sailor
bryan
spineless
blyton
ezra
hutch
pryde
demonstrated
tissue
tissues
exaggerated
scorpion
scholarships
untold
175k
legitimacy
karaoke
strategies
tabletop
massacre
militant
athletic
adulthood
captivating
dracula
repetitive
insomnia
bensolo
notorious
smollett
evacuate
vineyard
browser
tsunoda
dopesick
phobia
trivial
bubbles
bookshelf
furniture
##illustration
eclipse
ginni
miserably
lithium
reminis
tyrannical
sophisticated
bicycle
vancouver
##igitalart
colombia
nevada
unbearable
badgley
vindictive
pablo
myfavoritewriter
unproven
illinois
beckinsale
irreversible
ororomunroe
raredigitalart
⊰❉⊱
wefightasone
seanconnery
ghostbustersafterlife
mkарт
2m
3m
4000
5x
81
8cat
9b
a4
apop
bers
bumps
baker
bae
cort
cctv
dir
dapp
dup
doof
dork
eis
eug
ehh
erect
fier
fona
gs
gou
gust
gdp
hend
ib
ilan
js
kol
kline
kiw
lv
lite
lach
lighth
morm
mons
nim
nash
oa
oden
oval
ovation
oasis
pon
pend
pett
poult
q4
r4
rake
sv
scept
sque
tender
tilt
tiles
upp
vain
wld
wreat
wires
za
##rab
##rane
##rina
##mph
##pill
##penny
##e22
##top
##oked
##iking
##cm
##cur
##fal
##lasting
##kick
##dem
##dream
##wu
##xide
##hook
##81
##gifts
##voy
##01
##5e
##jd
##jab
##jour
##japan
##zie
##2k
##és
##イルズ
##ทั
##の怪
##荘の怪
##事件
threes
##inj
##inthe
##invest
##inthem
##erver
##ouls
##essee
##arb
##enix
##itle
##edon
##edient
##llers
tothemoon
youuuuu
##rec
##etter
inmates
andr
##lego
##veve
##owyn
israeli
whore
##struct
beacon
rept
heap
sting
stoo
##sein
##seid
##lyss
faceon
##amy
##amint
##amata
shat
shamed
##entry
##open
##ecat
chir
cheet
cheek
##choice
notably
##tero
##teri
wease
dover
dooms
##theless
##urp
##urring
pren
pratch
neon
##andom
##ppost
##ustom
##ests
meals
goonies
##ulates
moir
moist
mosc
moai
framing
fruits
##gems
roc
aby
alum
orion
orwell
oragon
##aux
unve
unil
unint
unise
uncover
undes
uninter
unsold
##lose
##lobal
upto
##apore
seiz
coding
prox
provin
manning
plumber
usna
bribe
disclaim
blades
blaster
gras
grimes
grudge
##deal
##vensie
scap
crist
croft
crisp
goodluck
swoon
newbook
drift
##acting
##actica
backyard
bub
buh
##idel
redo
shoulda
##ivingdaylights
watchable
watchmen
elsa
foh
##ichallen
mull
showers
overtime
overhyp
intel
intimate
resil
##liable
marvelcinem
apprent
bookworm
##enson
worldview
transmit
##crush
strokes
downplay
downloading
charms
##arkknight
thriving
undergo
undervalued
##athom
intercept
interface
##neider
flowing
flows
aftermath
botched
signalling
##ugged
comma
##clan
##angs
##angle
lastwar
lifeless
infuriating
evan
longev
waits
financing
##drive
##drama
##shell
##shots
##eneuve
accol
oldman
netflixth
disclos
shitcoin
monitor
hardcover
sliding
repulsive
populations
glas
glitter
classical
starwarsfan
minites
weebs
complied
complications
recons
greene
consoles
considers
shiboki
rafa
schneider
indec
governed
##scake
##ofhumanity
darkseid
effing
avg
worded
inciting
warlock
top10
regurg
bannon
##bborn
12b
damages
##rica
parr
##weigh
##weather
##sterdam
earthqu
blofeld
blooming
mcfar
additions
essaydue
shortages
elemon
hub
buses
launcher
cheats
proficient
singapore
##swart
terrace
marketer
galore
genderque
publications
inclus
healthier
misman
greenhouse
greenlantern
antenna
##2020
researchers
casts
testify
cattle
catlovers
##eatre
massage
considerably
richards
reviewing
diego
youngadult
oneself
subpar
ahah
308
givingtuesday
patric
protector
forgettable
detriment
empir
dearly
sentenced
risen
designing
privately
searched
trusts
diarr
gasoline
##aticuniverse
traveled
denies
denomin
favours
jeopard
streak
laden
condol
labs
locally
googling
victimhood
subsidizing
homophobe
cardio
##barnes
radios
##theway
##theuniverse
spreads
punishing
mutation
##ervation
burgers
spokes
roadster
faceloiting
160
contractors
globalist
organizers
narrating
negate
provider
similarities
hussein
sharks
difficulties
bennet
recovering
femininity
knowingly
subscribing
announces
affection
rounded
vanity
arcs
andrewgar
senile
timer
kenneth
apologizing
ultron
blinded
##jobs
haloinfinite
controller
novak
vox
chapelle
1986
tori
dupl
negatively
bowie
relieve
colonization
graduation
performers
validation
malign
sketchy
zelda
royals
compares
overtaking
cracker
gravit
dictating
hesitate
1978
##follow
medications
synonymous
sensational
1960
1964
lunatics
splitting
hacks
##metaverse
bodied
##iliation
##burger
eyebrows
editors
editorial
shadowand
ianfle
unfairly
michelleobama
mechanisms
wiser
princessleia
rejection
relaxation
partnered
requests
mccoy
gestapo
primer
lh44
portraying
graduates
steamy
economies
27th
concluded
gauntlet
facelanations
##ohl
witnesses
34th
dvds
inequality
blackseries
unsustainable
patriarch
mocked
traumas
pools
premiering
maintained
janeausten
mixt
royalty
prosecute
discounts
elders
gooooooo
kwannon
ricky
resignation
acquire
##aaaay
lamb
lamppost
bbq
tolerant
untill
heartbreak
rotj
potterheads
bums
awwww
gibson
contradiction
tattoos
hindi
thelivingdaylights
gregory
distracting
meltdown
christmass
christmassy
arresting
##freak
clifford
gimm
vh2
stacking
ofcourse
escaping
egyptian
overwhelmingly
kayla
theoretically
maticverse
hoover
vitri
authenticity
contradicts
steril
##oftheyear
hs2
rereading
accelerated
kalamint
tennessee
unconstitution
parasites
danielle
ambiguity
retrospect
impressions
vigilant
prolong
enchant
exhibit
ministers
miniseries
orchestrated
caitr
cautious
##soldier
definitively
fantasies
steady
catastrophic
stubborn
charismatic
collapsed
confederate
farewell
nfswart
vendetta
retrogaming
zacksnyder
descendants
mindfulness
calculations
indoctrinated
browse
egotistical
dismantle
unmasked
disqualified
follo
maytheforce
galaxies
##highrepublic
nodejs
celestial
aerosmith
maneu
clutching
storyteller
elegant
protein
annihilation
oligarch
##cowboybebop
locomotive
arsenal
muddy
natasharoman
jemima
##islaine
crystals
underwhelming
subsequent
undeniable
nachos
ounce
neymar
shibaflokichallen
cucumber
obeying
スタイルズ
unstable
semenya
100daysofcode
rhyme
westminster
fiasco
ukrainian
releasethesnyderpunch
netflitongue
microtransactions
repercussions
whomever
##uspense
dissonance
adrenal
pinnacle
bricksetsearch
remembrance
poultry
##荘の怪事件
moscow
unisex
marvelcinematicuniverse
lastwarofhumanity
longevity
minitesla
andrewgarfield
unconstitutional
natasharomanoff
shibaflokichalleng
スタイルズ荘の怪事件
0n
0ne
011
2pm
8k
a10
bd
bert
bby
cue
cain
damp
dives
dorian
dancer
fv
fid
feck
fyp
fudge
gild
gavin
huff
jared
kle
kary
kett
kassy
lac
lcr
litt
lender
lyd
moooo
moles
migration
ncat
nih
nvm
norton
pbs
pars
qasim
rend
rho
rts
rushing
riley
sq
sally
tum
tapping
tails
ubi
vaw
wong
wau
wards
wounds
yang
£1
£2
มี
##rating
##uch
##mac
##mill
##mack
##mint
##mium
##powers
##paint
##tips
##oin
##ojin
##iu
##iess
##iens
##cence
##cery
##nw
##nh
##aul
##ailing
##a74
##final
##lbs
##lords
##yam
##kd
##dain
##dale
##dumbledore
##wide
##bac
##hous
##hare
##halla
##8ภ
##gaf
##giveaway
##vamp
##53
##รบ
##ครบ
##้ง
##inee
##infl
thess
theforce
##onial
##atr
##atan
##atues
##anet
##animated
##eson
##eshold
##arus
##orr
##editary
topping
topped
anarch
##realism
##acist
##omas
induc
ingen
##otte
whew
##state
##sthes
bever
bearded
##uters
##utive
reatongue
rewind
##idley
stur
stever
faceend
faceedition
##amir
shee
shroom
##opus
##opulse
##ecc
chel
chunk
##immer
wein
weave
dole
lizz
##theric
##uran
##allic
##olive
neville
##onewars
soothing
sobbing
##andch
##anders
tron
tramp
trippin
##unition
##estar
amit
gob
gog
##ulars
moc
moco
mak
fridge
##usa
##usk
roster
abuses
abrams
alba
comical
atla
loon
lovel
logged
unclear
unarmed
polling
##abs
##abro
heartbroken
heartfelt
##lox
outlook
outweigh
leagues
marv
marie
marriages
##akh
sew
seld
sega
seethe
##endum
wholly
arf
prog
everworld
everlasting
bypass
brace
bristol
moreover
clap
cloned
hass
saxon
seekers
disable
dispar
disdain
##agin
##agen
scout
crue
goodwill
swag
nowplaying
timelines
hereditary
teac
teap
teases
drank
backmarkers
backtoth
needlessly
starved
starfire
##isha
##icked
##ucket
guff
##plete
quint
muh
payroll
##berly
beingtheric
##quack
harlem
bookish
nevertheless
##mann
medically
##crimin
firstly
realy
downwards
##covid
threshold
lotto
##awakens
##appear
interference
perot
marker
poty
defender
talkin
descent
hopeless
somethings
infront
dcleague
##uprem
##ela
winters
##sports
financed
##getic
gamepass
##grow
disclose
bitmart
genetics
musks
listens
##nyders
slaps
believer
factions
humbug
##aired
characteristic
repairs
matern
legom
##hoe
wrongs
##every
classified
amazingspiderman
miners
minamata
loudest
metropol
ideologies
imposter
surreal
governing
broader
suns
schemes
buttons
hunted
##ofsuperpets
##gler
##maj
congen
collectively
psst
solves
##ledeal
bananas
acba
acoust
revamp
1200
sno
snoop
sadistic
merrick
parab
paraph
##webs
futile
bloated
edits
pecon
shortstory
twitteroftime
honoring
gundam
clearer
cheered
morbid
profiting
ruby
baron
generosity
hii
effectiveness
galactus
potterครบ
apartheid
psychologist
midst
sideways
subsides
respecting
respectable
##collective
wallace
catac
smallbusiness
00000
breakup
successes
milking
subur
deviant
devotion
salv
pickle
turkeys
ahahah
ahaha
multim
demol
typos
##ophren
celebrates
##goal
##oupage
deport
detention
empathetic
penet
wana
cows
erin
##ographers
autopsy
##cester
ageof
gases
travelers
painfully
denigr
denounce
shopsm
roblox
campus
bcs
receives
doubtful
##yridley
hawley
motives
picard
##zzz
exceed
pitiful
##official
mistress
puh
anglo
csli
faceloited
hyd
revolve
savages
narration
nyugo
werent
citadel
capitalists
capitalize
premature
thermal
packaging
focuses
civic
husky
##studio
boarding
noticeable
feds
falsehood
##atorship
criticised
##stroph
pinky
1990s
vanish
vanishing
contacts
environments
speechless
diameter
activate
jerks
flashbacks
voicing
scammer
chapel
1981
matching
apartments
separation
500k
churchtoo
automated
duke
campaigning
colonizing
saruman
mercs
captions
malays
triggers
licorice
unreliable
##ooooooooo
percentages
exercised
beginner
naom
pillars
applicable
uhd
ashley
suicidesquad
hesit
reactor
seminar
1970s
##fold
morty
lifes
sections
sectors
criminally
atmospheric
displaying
johnnydepp
dmvfreaks
talkshow
multiverseofmadness
creek
ltc
boredom
oppressive
saitam
giggles
oliv
seattle
suspects
stanlee
bunscake
emmafrost
ozone
aims
telescopes
conflating
truckers
implication
interpretations
televised
funkopops
aiart
borrowing
stalk
clintons
incomplete
##ophobic
axes
axis
poisoned
regrets
coaches
translates
lazer
traumatic
boosting
injecting
freddy
moody
egos
bleak
sponsorship
freaky
##stoppable
simplest
simplistic
battlest
briefing
conflicts
busters
deceased
##finitely
barbarabro
virginiawoo
echoes
compensating
bb8
observable
observations
##ienight
##jackman
decentraland
insecurities
snyderverse
tactical
brutality
gcs
condemned
spirituality
dorks
gearing
reformed
django
encounters
wrecked
ftm
wakand
restaurants
iamwriting
iamreading
antibiot
firmly
emerged
ayo
##presso
viggo
stirring
reputable
hughjackman
weighed
powell
##radio
overriding
intrigue
shamelessselfpromofr
photographs
charlotte
whiskey
consultant
mortgages
cindy
betrayal
stoked
planetarydef
ingraham
storms
composer
##ofthejedi
certificates
variable
variables
arkansas
patronus
cereal
leaky
p2p
ammunition
dosnt
vegetables
elevator
fabricated
hogs
attributes
collaborative
andrea
cringey
tigerkingseason2
divert
saddest
endorsed
therapistabuse
releasethe
microsc
adjectives
tantrums
catastrophe
pompe
tasks
thecw
mexc
disposable
rooster
##ofskywalker
induced
reservations
absorbed
exclusionary
shiborgarmy
academics
antonio
feasibility
throttle
damianwayne
bacteria
tiresome
##corruption
motherfucker
yorkshire
libtard
negligible
worshipping
pyramid
antivaxx
waffle
energies
prayedupon
hansolo
##felter
kylerittenhouse
hogwart
casinor
propagandist
mumbai
leviathan
apostle
husbands
aerospace
##alonians
temporarily
tropical
spielberg
lollip
monstrosity
micropets
staggering
manchin
daisyridley
splendid
cedric
nirv
oklah
avocado
coincidentally
quotestolive
##octopus
epitome
apostroph
messenger
##ทั้ง
moiraine
scapego
glasgow
reconsider
genderqueer
diarrhea
condolences
shadowandbone
ianfleming
maytheforcebewithyou
kettles
lydia
waukes
มีharry
##8ภาค
thessalonians
shroomz
backtothef
beingthericardos
dcleagueofsuperpets
potterครบทั้ง
barbarabroccoli
virginiawoolf
shamelessselfpromofriday
quotestoliveby
potterครบทั้ง8ภาค
1s
1b
1pm
330
4m
bumble
caw
cked
capped
caine
dx
dorm
daring
dinger
dandy
egreg
fug
feral
faked
fassbender
gv
giv
hh
holog
hides
iz
iot
ibu
kerry
lance
lacom
lingu
lopez
mack
macy
ng
ness
nant
nug
nigh
nooooo
ola
ostr
pes
pave
pwe
ripp
rita
tink
tide
tbs
uf
vand
vatic
vested
wl
wich
wang
wether
wifi
zo
##mir
##mie
##make
##milton
##patt
##papers
##ele
##oi
##o3
##i̇
##cas
##camp
##cats
##a2
##a25
##fir
##fix
##fox
##future
##yles
##sight
##date
##dles
##wy
##wish
##wyn
##bas
##hc
##hang
##hallows
##73
##v1
##vill
##1k
##91
##600
##48
##jug
##╲╱
##ี่
##ergetic
thep
theological
##anza
##arvel
##around
##orth
##itative
##edd
##llie
##isure
##iscover
##isement
anarchy
youuu
##rea
##acad
##leys
##lements
##iccon
whedon
##idth
##idious
heh
stil
stag
stoop
haik
facegt
##amu
##amg
shook
shawn
##oplan
##adc
##ados
##ecr
##ecks
chats
chased
chicks
chalk
chubby
nothin
##urst
##uration
prin
prow
prank
pricks
##ols
##olith
##olsen
soil
soaring
trx
trum
##unge
##cell
##ersstone
mys
##umbs
amused
amsterdam
goa
goggles
##ulum
##ulant
allot
mojo
spac
spont
rode
alo
alarming
orgs
oranges
##ctothemoon
likeli
deff
defer
no10
worms
uno
unders
unseen
unoriginal
unstoppable
poetic
donor
donut
jog
##abilia
ensemble
energetic
heartwarming
upwards
leisure
##ifty
##aku
##akko
coy
##endars
arb
knob
mango
thereafter
##ibus
##ibooks
brenn
##irection
thinkers
hash
blunt
aging
grish
graff
##del
##defi
crock
cruc
crumble
cronies
##ogers
swapped
timely
##ousy
##ousers
newborn
##atched
adoles
drastic
##activ
rightful
joyful
redn
##ipher
imam
elix
offsh
offline
veloc
##aza
overblown
helium
##beau
himal
##erying
##berish
gott
##liers
afgan
##odic
bookstore
firth
seren
transmiss
##crow
stranded
20s
downright
downfall
##covers
workout
undert
underway
##ilda
##tons
intervent
decon
decode
##ologues
lololol
potion
defends
##amps
fluff
collage
collusion
playthrough
playavengers
phases
botsw
supplied
filip
probation
descript
descriptions
##iseofskywalker
preservation
networking
endlessly
politely
fucker
blackhistory
dcweed
##updc
##elt
finney
##eney
gameofth
remaking
indefinitely
bitshiba
montero
retract
slope
slash
kindledeal
idiocr
buythed
legos
birming
glaring
syrup
##brick
2028
xmenart
simul
metac
metasaurs
ideally
grease
impose
consol
sorcery
broom
governors
##scam
##scouch
collectable
favorable
ps1
ps3
avax
solsea
inconse
190
193
1920
1967
regulated
snoo
speculative
##uese
sadness
mcgon
restroom
restrooms
purity
hux
possessing
##boราคาถูก
barak
barriers
imagery
extraction
siren
delve
marketed
shrimp
hiking
totem
victories
illiterate
miscon
misplaced
##otts
biot
biow
psychologically
greenland
midwest
##xedo
reflex
narrated
eachother
researching
damnit
costa
##rikes
tvs
url
smallstreamer
hotter
copic
copper
crosses
008
begs
submiss
picky
pickwick
truthful
savegoth
##forlife
##remium
welby
111
inflict
cutter
madd
electron
workshop
violin
violently
versex
airborne
detract
wokeism
shovel
##uba
culturally
wank
garg
locksmith
centaur
imminent
varies
variation
nftcollections
inspector
privat
##hobic
##vinyl
romantics
nearby
astroph
##lsen
murdermystery
appreciates
booze
cyborg
favoured
133
antiqu
physic
##ethiop
knowledgeable
robotic
##incarn
pathways
doctoroctopus
locke
##doll
##doch
cosy
telepath
euros
responsibilities
motto
cardboard
coloring
branding
##inemand
##they
grandkids
sanditon
acronym
petulant
obsessive
ridicule
pressures
touché
hyojin
germans
geralt
utah
predomin
contracting
earners
venues
crews
driveway
lawsuits
funkos
funkof
nye
opted
##uza
provoke
summar
austria
cleanly
##eeeeeee
ringing
balancing
policeman
criticise
doogie
doocey
individually
iceberg
tourists
##aaaaaaa
miracles
scrapped
pollutants
starsky
nutrition
clicked
hilarity
hilariously
##marks
rhyth
cashing
mintable
##boxes
beginnings
vibr
##ocolonial
wheelchair
##joker
##johansson
flashes
armstrong
professionally
wingers
innit
spiritually
1988
1982
matched
msnbc
wedge
scarred
automakers
clarified
clarification
commerce
layers
vacations
goalposts
brazen
gradually
malcol
reylo
tyrants
astonmartin
poetrylovers
desperation
archie
archive
darren
hoodies
letterman
duties
1976
1973
1972
luca
mansions
gangsta
tunne
forex
vevefam
formulaic
##metry
brightest
comicbookart
disliking
puppies
puppets
duncan
rename
mattel
tuxedo
juicy
advocacy
interpre
cavil
trickle
eastwood
disrespecting
derp
parental
downloaded
tuesdayvibe
strengths
01pm
girly
##ylvania
roses
gentr
comprehensive
chuckle
reduces
esb
brucewayne
padme
foreigners
obliter
rican
shambolic
structural
illnesses
sabrina
resistant
bayfield
inex
wednesdaythought
##eclipse
poisonivy
intellectually
fueling
distribute
hahahahaha
gifting
emergencies
kimberly
maintaining
pilgrim
pedophilia
motorway
motorcycle
discounted
brainwashing
menstruation
deceive
deceiving
inventor
rawr
fifa
##planned
hipster
comedians
lambo
screenshots
baht
otto
##maguire
vaxxer
rhetorical
##jackson
modular
modified
sneakers
hindsight
##43e
rivals
shilling
ecum
flexible
888
whitney
cocktails
buzzfeed
bomber
carrier
##ootongue
420dc
gimli
thunderball
stabbing
##┈┈┈
cube
wizardsunite
##hardy
escapes
rifles
##arnage
whiney
easterncon
smoothly
marxists
contempl
bruv
napole
lobbyist
dsds
unlockable
sparks
sparrow
scifibooks
##beard
aspir
railway
perseverance
cheeky
##hunters
##galactic
krypto
ruthless
##profen
astroids
หารhboราคาถูก
vocals
vaguely
uncont
##mastered
parasite
elevated
diagnosis
##yyyyyyyyyyyyyyyy
chrish
prestigious
attributed
collaborating
mmmm
sibling
##gamer
revisited
cuckoo
gurl
misrepresenting
resemble
##uuuuuuuuuuuuuuuu
gingerbread
ronaldo
waltdisney
diminished
persuasion
##question
newtons
carpenters
banshee
ariane
scarlettjohansson
diane
frightening
humiliated
livelihoods
nadal
instrumental
portuguese
dioxide
brittany
redefine
misgendering
##kkkkkkkkkkkkkkkkkkkkkkkkkkkkkkkk
paragraphs
stylish
edmund
ascension
friggin
peddling
negotiations
ecommerce
zufinance
synthwave
concede
sloppy
highschool
solananfts
warehouse
rehabil
eboni
lulu
suppression
template
comrade
intricate
reprimand
hudson
yoga
amirite
frenzy
hasbropulse
awsome
##wolves
knuckle
thumbnail
circulating
rosamund
jolie
laundering
raffle
multiversus
fuzzy
tiffany
##fortune
monocl
starwarsvisions
misandry
imprisoned
dildo
fstai
faceremium
steroids
nightmares
fierce
##ranean
##inthemultiverseofmadness
disclaimer
overhyped
darkseidscouch
patriarchal
vitriol
fvck
lcrd
inducing
steverogers
teapot
congenital
##website
naomie
battlestar
antibiotics
casinoroyale
lollipop
nirvana
oklahoma
backtothefuture
egregious
ibuprofen
nantucket
vatican
likelihood
interventions
botswana
gameofthrones
birmingham
inconsequ
savegotham
##ethiopia
malcolm
3pm
4x
5b
6m
616
9000
a9
avid
aero
azz
bion
bark
busting
bvs
cst
cement
cbd
d2
dues
durs
density
eater
fad
fax
fals
fps
feng
gow
gart
hast
hive
ia
i´
jas
jee
jumper
kart
kod
kild
kits
kately
lal
lana
lilly
m8
munch
malf
ngo
nanny
ost
oath
omen
pans
piles
pdf
rl
rented
rapper
rumble
sow
sizes
sissy
tk
tou
tout
tore
tittle
vern
vgp
wut
wally
wield
wooo
x21
yv
zs
zod
£20
##ridge
##uj
##uan
##ugh
##past
##tar
##tie
##tail
##tteri
##overs
##c9
##cars
##cave
##nz
##aj
##aic
##a97
##flying
##fnft
##fathers
##loop
##done
##dest
##dance
##dates
##d70
##division
##wonder
##xrp
##ben
##bill
##best
##hen
##hall
##havan
##72
##gence
##gallery
##04
##1t
##54
thong
thigh
##inav
##inates
##income
theboy
##ingles
##annel
##organ
##itious
tock
##isations
anonym
youll
youuuu
##etoys
##etoken
##omal
inade
inert
ingl
##leigh
##lebr
##otch
##icc
##icter
##icates
##iciently
isab
wheat
##stage
begg
##along
##alert
##ayerc
##utation
reich
rewr
reclaim
reentry
reincarn
heel
sta
ston
##igieg
faceless
faceired
face30
faceiring
##amily
##amins
##amili
shan
shil
##ady
##ilow
##ilish
##ecake
choo
chickens
##chains
##irs
##irby
##imm
##imon
##imoto
notification
##thun
##think
##urer
##urious
prag
nepal
neocolonial
soory
##andpr
tres
trim
##unction
##unken
myteam
my500
##istas
##ights
amass
amuse
##ulary
moh
spree
spidy
abys
abrah
##antan
orgn
deity
debra
noises
nozzle
nozzles
unaff
poking
poets
##logo
##lova
##ivan
willfully
outlier
marches
##astos
##astair
cocon
smth
arwen
##empl
managers
anyhow
plato
plural
plaster
##iba
##ibs
##iblest
cling
clapped
sage
sahar
##inex
##integr
blake
blizz
grotes
grapes
##agall
scaled
crest
swings
handsoff
newey
newcomicbook
ampl
ample
adored
carries
carlson
drowning
drunken
##move
##ffect
##ffects
wrapping
imbal
##ionship
watchers
eli
elven
nftjapan
guild
quacks
quarters
muff
##azer
overpr
personnel
##berries
residency
goth
appet
harbor
##ahome
worldof
medica
transmen
stricter
contam
containing
##arkkum
##coz
lotron
##awful
perry
asshat
harrytr
yelled
flown
playoffs
phastos
##blind
filed
probabilities
desired
complying
##isel
hoe
##cling
##clonewars
starters
amazes
##roids
##roads
moonlight
dcwx
keeper
##ussies
finna
##shirt
obum
netflixราคาถูก
##grand
##grade
superpets
discont
boond
bites
etharkkum
shitshow
hardworking
slots
factories
idw
secs
populated
matty
maturity
glam
glued
##hov
understate
understootongue
sweetest
2029
starwarsre
minifig
weeping
metap
metals
metazilla
recreat
teamwork
impat
consists
raj
malek
indict
laund
laika
relay
mustaf
##ofsecrets
insens
collectiblest
avi
incest
incase
steals
baba
mindhunter
linking
confession
specify
sadden
advancing
para
parach
doubles
shortstories
twitterspaces
elekt
blueprint
schooling
shareholder
bidder
profite
seth
barf
delicate
fairer
hier
pumpkins
rulers
biologist
biopic
nonfiction
refusal
applepie
virologist
##gyver
costco
selfies
currencies
photomode
catecoin
cataly
catrine
valtteri
camel
calendars
201happy
bscs
breakers
richquack
youngsters
accountant
democratically
democracies
poorest
##ikt
specialist
turds
murdoch
savehappy
savecowboybebop
##othe
##othes
patents
patrol
madrid
prevention
digress
vera
verge
depicted
natasha
airline
dealer
penns
equipped
silk
silvers
luann
wolff
wolvie
disservice
nora
garcia
doctrine
sleeve
romanc
boxoffice
astr
asth
##cribing
hyping
ironstudios
tarot
jeans
platter
shopify
disappears
disapprove
labyr
liberation
telemetry
removes
europ
9999
motu
villeneuve
survives
maskless
exceeded
mastermind
agreements
scenery
##offire
##offici
ticktick
salem
##theworld
mercedesamg
##bopremium
gamete
ridiculed
pressured
faceloded
trashed
##baum
rulebook
venice
##downs
competitor
##withane
revolves
missionaries
docs
nerves
melanie
negro
legoharrypotter
legoadventcalendar
##dogearmy
sharon
hasnt
##fraud
bali
nominate
courtnie
occult
roundtable
mirac
civilizations
peddle
hospitalizations
recognizes
grimm
ryu
felonies
cosplaying
screws
davidson
##ydal
hallway
armour
operational
bono
##ofthed
msmarvel
bandit
jules
##walks
starships
pitbulltok
toycollector
pinching
##mcgrath
nicest
equalizer
determining
accompan
horseman
innocents
##banks
faceerimenting
archet
darcy
knockoff
talentless
participated
tobeymaguire
reacts
semitic
medicines
belonging
leslie
splayed
hacking
encourages
torycorruption
brighton
comicbookpodcast
weaponized
rewarding
renner
agentsof
adequate
reflecting
jenny
counterpart
nftgiveaways
##rehensible
olive
calmly
reportedly
strengthen
limitations
constructors
macro
planting
brady
somalia
gaetz
sustained
espresso
loophole
declaration
rico
igcomic
roasting
aggressively
calculate
mildly
tezosnft
protocols
installing
kimi
kuwait
kubrick
simplify
simplicity
petey
royalties
prosecutor
multiplayer
rescued
deceit
deceived
##bubble
inventory
shockingly
implementation
cabal
measurement
perpetuate
halleberry
tolerated
untested
rotation
gibberish
contradicted
disturb
peaches
thelion
kishimoto
riveting
misunderstand
##reviews
laboratory
ecst
flavors
whiteness
##comicgoal
awaited
principals
cassidy
cubes
hypothesis
katy
embracing
genocidal
73k
vhii
koran
escapism
pakistani
doctorstrangeinthemultiverseofmadness
temperatures
duration
horizons
scandinav
boggling
nascar
extrav
encountered
horseshit
grindelwald
obligations
sophia
atrocity
unlocked
ilk
whispers
pennies
scratching
havoc
havok
indoor
timothydal
##idoge
downingstreet
##nuts
lorde
negotiate
mushrooms
caveat
lennox
sidney
flokidoge
warranted
fcking
cutscenes
discriminate
tempting
yahoo
##profit
##weights
หารhbopremium
newspapers
slimy
prostate
##oooooooooooooooooooooooooooooooo
bronze
louisiana
admirable
manufacturer
ecto
butchered
cringy
culpr
mitig
outdoors
endeavor
##wednesday
shaun
crabs
saddles
treasonous
enslave
exhibition
lsreal
prioritize
wyatt
sovereignty
dababy
propell
maiden
recipro
recipient
tnx
xenon
rehears
shaggy
frightened
cliche
##ertainment
disposal
aisle
dopamine
##police
disproven
persecution
reinstate
athlete
fishermen
##building
bourne
feasible
hardships
completion
larson
pioneer
relentless
##connect
demeaning
pedestrian
administrative
หารnetflixราคาถูก
หารเน็ตฟลิกซ์ราคาถูก
fetched
##piderverse
gosling
insinuating
memorabilia
intersectional
derek
disconnect
urgently
untouchable
thisistheway
##ferencesoutheastdivision
proclaimed
freemason
##engineering
palestinian
whataboutism
showrunner
covidvaccine
avatars
anesthes
ussr
nftphotographers
interchangeable
sonofshib
administered
gawd
exquisite
babybali
acquisition
blerd
artifacts
argentina
referee
lcdp5
plagiarism
kardash
thirteen
scissors
awesomeness
schizophren
lucius
tarantino
buckingham
autonomous
reminiscent
klinefelter
kiwi
doomsday
abyss
gimmick
miniteslaoffici
##finalspace
##animatedseries
chelsea
seldom
multimillion
releasetheayerc
waukesha
lacomiccon
elixir
idiocracy
buythedip
submissive
romanticsuspense
rhythm
ecumenical
monoclonal
inconsequential
katelyn
##amiliar
my500comicgoal
abysmal
abraham
coconut
newcomicbookday
medicaid
etharkkumthun
laundry
collectiblestatues
catrinella
pennsylvania
labyrinth
ticktickboom
mercedesamgf1
agentsofshield
releasetheayercut
6k
763
aus
aap
aoc
aided
aura
aaaaaaaaa
bw
bmore
c0
cade
cunts
dq
dba
filing
fiber
fathom
g2
gly
hk
ick
ico
kee
kane
katherine
loun
mw
mmo
nes
nun
nene
nina
oi
okey
ova
ping
pist
pears
pff
qatar
quran
rim
riz
rope
rian
rors
rio
roth
rails
s4
sade
sinking
siding
slog
tart
tong
tether
tiring
ui
wim
wus
wary
wands
waver
wagon
xi
x23
yk
yfnft
zing
zaz
£50
£12
##rö
##rig
##ril
##rue
##rians
##uva
##mem
##poli
##paid
##ez
##ti
##toys
##todd
##iya
##iologist
##cart
##cant
##cott
##nin
##fant
##fair
##funk
##feeling
##yber
##kar
##kre
##sher
##doo
##dick
##doms
##wil
##wink
##wild
##wetongue
##b1
##b10
##hon
##hit
##hats
##hub
##gw
##gart
##gian
##gala
##gwen
##via
##06
##9e
##3a
##jl
##jor
##joice
##zero
##2f
##ーマ
##ร์
##♡♡
##MEN
thu
##infinity
theun
theod
thedi
theclonewars
##onoke
##oninstagram
##atus
##esar
##ariant
##orestation
##enough
##itics
##itations
##itates
##itivity
##edral
topper
##isback
##isoft
ans
animate
##asia
##etts
incel
andh
##icut
##icans
wham
##sticks
##stournamentofhouses
begged
##alore
##alox
ong
onset
##ayers
##uter
##utton
rejo
rejoice
healed
fornarnia
##ldon
##igs
faceMEN
##kex
##kefe
##adot
##ilm
chim
chron
##artists
##chach
##impl
noting
##tered
##illah
likable
##thes
##urv
##urpr
aretha
sob
soda
asper
trif
troy
tripp
##unci
##unky
##celon
##estrikes
cans
amal
amanda
goon
suess
mobs
moana
maz
mais
maul
mailing
##gey
##gex
rodr
alz
comin
comfy
oracle
##out2022
likeable
depop
noice
##aug
lox
loath
loathing
unch
unchain
unblock
iffy
poker
podern
don´t
jodie
josie
heartless
##loves
##ecta
##ivus
connot
consec
willie
outbreak
getupdc
mara
##ifics
##ifallen
seam
cobb
coex
smdh
arn
arakko
##anson
##ema
mania
manilow
plates
exxx
brah
braw
saj
sails
##mented
displace
disabilities
blames
aggreg
agwetongue
grain
grump
grifters
grohl
themself
thematrix
crows
##pted
goodman
##ogies
swind
handic
##iage
newwave
twt
twer
careless
##moll
##moine
backdrop
rockin
rockstar
wanton
redhood
skim
skyr
watcher
nftproject
guise
##avis
##avid
##avoy
offences
perspect
##aughey
muggle
veil
##azi
overst
overshad
parton
##izard
stills
werewolves
wellness
marvelfanart
appalled
chang
harmon
booklover
##aho
##ahar
##ahhh
fegex
##crime
##ailable
happyholidays
strand
stripping
stripes
striking
realistically
charade
bestbuy
underwear
##awareness
lighten
##appreci
interfer
interior
decim
decoupage
##mask
fung
funky
assange
##iani
##pract
flint
flicks
fluffy
phoe
signatures
madele
##blower
composed
hoard
hocus
commend
polk
##clusive
belitt
belarus
amaze
##upop
##ussnape
longterm
finland
finsup
##drag
accred
remedy
superheros
spaceballs
favors
##ashi
atten
biting
usecase
##ertips
ethan
genie
genetically
musibig
monroe
monsta
mononoke
retards
retribution
sling
sled
racers
##potism
##ocent
reps
mats
maturing
taxable
postman
filmmaking
wrongly
teller
harrypotterfanart
minnie
compliance
meters
faramir
recurring
##ypodcast
teamed
shibatoken
shibanet
helluva
instig
sorrow
sorkin
fanatics
cryptotr
clears
schm
capeshit
##kier
relic
relating
relinqu
mustang
mustache
collects
mras
opener
incite
incitement
steer
1950
1930
kidsbooks
dogma
acnh
brett
##bbo
wonderfully
snp
##ysics
edison
originated
column
gunna
##boat
passage
standpoint
standalone
babyfloki
barbie
barcelon
gloom
delaware
fairies
effected
riders
riddle
paj
originality
misch
##aneous
nonstop
sidekick
##ternoon
holby
johns
##ription
##tres
tsuk
promot
freeman
valhalla
calibur
massa
hoth
breakout
004
reviewers
milks
submar
subconscious
devon
youtubers
commentaries
50x
##iko
##ikaze
salma
horrified
kingdoms
welsh
blockers
feared
madam
madonna
electorate
celebrations
worksh
15k
articulated
constr
constrain
caus
##hey
joebiden
renewanne
certainty
sentry
sentencing
nearest
diagram
geo
##lsa
murderous
dennis
boogie
snowy
platinum
deepest
fingertips
commonwealth
digitalpainting
blooded
replicate
authorized
##doom
182
limbic
banksy
debuted
keystone
panicking
motel
motupop
villian
ports
branded
palmer
avengersgame
##raltar
burton
crimea
angst
##bonk
samwise
sufficiently
speeds
crimson
earnest
venue
globalists
recommending
tasting
##letthere
##twins
sundays
spirited
conceptart
conceptual
practiced
kindlebooks
davina
federation
buffoon
nomination
##ahahaha
##edients
occurs
progression
progressed
objectives
connects
civilisation
hangs
webdesign
ryosh
responds
sanfr
bellend
combines
combining
shootout
halls
cashapp
parked
famously
nuanced
bernthal
separately
lmk
temples
pooping
faceertise
toybiz
optional
margot
ronnie
congresswoman
woot
woow
methalox
sketches
oxym
revenant
upsetting
hungarian
ferry
naomi
dares
darwin
applause
venomletthere
bearer
##hanna
rumour
300k
1961
1965
lunacy
tunes
hackers
rioting
tigerclan
formula1
##ova
renowned
displayed
colourful
cybermonday
consumed
falconx
reflected
hiddengem
spinoff
conditioning
lifetimes
mechanic
jamal
praises
unnatural
stephanie
mdwx
borderline
soundtracks
advancements
limitless
residentevil
ambition
professors
departments
scrooged
marvellous
flawless
conclude
hormonal
mikey
myths
shelby
cc°
dummies
evolutionary
safemoonarmy
saberto
blasts
resisting
ninj
ninangs
miniatures
friendships
##lestone
mysterio
evangelicalism
disappearance
piping
##crux
##kethe
bleed
##thewitch
crafting
fellowshipofthering
glorified
busted
debuts
inventing
kamikaze
sympath
bbh
latinos
tossing
shifted
funnily
restarting
felicia
luxray
gibraltar
conquest
ssn
ventil
flavour
promotional
cathedral
overlap
##production
##viol
exhausted
##comiccon
javid
insisted
phrasing
hypothetically
##rodon
##bags
paganism
##knights
563
stabil
arabic
smashwords
looped
##umnus
##williams
douchy
theorists
theoretical
##adventures
drafted
olympus
allergies
horizont
stevens
skewed
sorcerers
1951
1950s
shamelessselfpromowed
elizabetholsen
prodigies
licenses
broadcasting
monetize
contradictory
dnv
enthusiasts
swtorfamily
doodles
ginnyweasley
ceekvr
stems
minuscule
offspring
prompts
mlk
lorna
ingredients
oriented
gatekeep
ranting
unleash
flooding
niag
colossal
unicorns
pipelines
chrome
oversimpl
admiration
disrupting
addictive
pseudos
pursuing
monopol
alec
stinky
evaluation
kuma
enforced
slaughtered
unfoldtheuniverse
butthole
heresad
mutuals
varying
pryor
micky
tchalla
##££££
anomaly
##champion
peacan
endangered
incorporate
incorporated
katiemcgrath
fcuk
rooft
ambitions
puncture
affirmative
mooon
##a9weather
anecdotal
infringed
retrogames
vaporwave
pentagon
throttling
mcconnell
mcconaughey
inconvenient
inconvenience
exhale
confronted
relentlessly
henchman
henchmen
jpegs
fiscal
chandler
##unnit
masturbation
rouge
##creator
psychopaths
psychiatrist
antmanandthew
pizzadog
cafes
sapiens
ubisoft
tranqu
gastrodon
reruns
dialect
ultr
skateboard
perpetrators
bachelorette
biscuits
fwiw
##conduct
fresher
howser
compatible
cheesecake
gulf
jrrtol
crippling
prevalent
beyonce
sabotage
fertility
shunned
misinterpret
natalie
suffragette
zuckerberg
gettin
brendan
gravel
##control
safeguarding
savetheplanet
wynonna
minerals
doofus
lighthouse
r4today
weasel
prenup
rockefe
oragonx
uninteresting
grasping
apprentice
patricia
denominator
jeopardy
gravitational
vawx
##andchill
teacup
metropolitan
hesitancy
wakandainu
blackhistorymonth
mcgonagall
napoleon
chrishell
kildare
##wonderland
lotronprime
understatement
mustafa
miraculous
thelionthewitch
timothydalton
etharkkumthunind
wusa9weather
theunfor
thediary
##unciation
unchained
podernfamily
consecutive
skyrim
perspectives
cryptotrading
barcelona
renewannewithane
oxymor
sabertooth
ninangsga
shamelessselfpromowednesday
2t
2b
2cat
5ard
630
7m
7000
821
ave
ase
aust
aight
ary
bg
bim
bia
bism
bapt
bds
boseman
bcoz
cn
cack
cem
cages
cactus
dk
dion
dile
dane
diec
deem
dotted
fum
fye
fotr
gau
gint
h2
hiv
hound
hbc
jame
kgb
lass
lfw
lousy
mst
mee
mice
moth
mund
mmor
np
nate
nak
nbt
nurt
ndp
nifty
pj
pess
puck
pss
psp
pats
porter
piers
rin
rish
rup
rife
rhe
raving
sip
tss
tying
tix
tsw
tae
ud
vlog
wic
wale
wired
wiring
waaaay
xan
yh
yeet
yates
yooo
zen
£3
£10
£15
£40
┈┈┈
##race
##rose
##rats
##rings
##uq
##uer
##uka
##mud
##pry
##pod
##pho
##pany
##pants
##e7
##eer
##e43e
##tax
##tech
##occ
##iee
##iott
##cf
##cw
##cad
##cation
##coph
##course
##aith
##fm
##lis
##lance
##little
##london
##lapse
##kw
##ketch
##kription
##dling
##dings
##disc
##wo
##xn
##bum
##bugs
##b26
##has
##horn
##hidd
##8d
##gay
##give
##gage
##gens
##gency
##genders
##guns
##groot
##vine
##1a5
##9c
##4th
##ée
##üller
##ör
##パイ
##ダーマ
thw
thai
##inho
thegame
thebur
thegreat
##onne
##onthe
##atical
##atra
##anche
##esor
##esity
##ori
##orous
##oria
##eny
##energy
##isu
##isphere
anus
aniston
##rex
##reach
##asht
##omon
inco
##otics
beers
bepop
##alot
onscreen
reinde
##iden
##idenced
sth
stee
stagn
stigma
forrest
forecast
hap
haired
face5
faceel
##ooine
shah
##entions
##oper
##opract
##ecom
chen
charter
chilly
chiefs
##chio
##chronic
##iraptor
weir
dolt
dolor
##thel
##thesc
##urfer
##urtres
##olini
nefar
neeson
nepotism
##ee5
##onel
##andcon
##andering
trough
troph
trunk
trashing
butts
##ersh
myart
myri
##earp
##umed
modes
spart
spear
frm
frances
fraser
##essential
##usetts
##geons
roar
alison
algo
aluc
comcast
##antically
##outuber
noel
atone
##audu
lob
una
unpl
uneth
unsee
unconscious
unplanned
jos
jokers
enr
enid
enab
enkription
##ivals
connell
one12
outline
##apitals
lep
leah
##ifs
coint
coerc
coca
arist
procr
kno
##emon
##imey
plac
plut
pland
plss
thereal
exoplan
brawn
braver
##ortex
sailed
disench
blart
blimey
gring
groped
##deals
##deagles
##oswitch
##agnet
crumb
crises
crumbs
##pty
everyones
swore
swipe
hissy
herring
herbert
hermoine
newcastle
##associ
teased
telsa
twi
dro
drowned
##eeper
rocked
rockwell
##ffee
##ouri
imitation
starvation
nftspaces
guides
guantan
##avans
quart
##icho
vella
##azine
overcoming
firecracker
payback
##iality
resent
resorts
prefers
##lik
crybabies
marvel2021
##quote
harness
booker
bookblog
readings
##ensored
meditate
transplants
##crative
realism
contender
workplace
underfund
moneypenny
##omething
##achusetts
llama
pots
arturo
deform
##ampa
yelen
##ianprocreationday
##prose
flack
fluct
sweepstake
supplement
supplements
compilation
hover
comming
baddie
##ordoftherings
endow
polished
##anga
homeworks
emblem
evade
evidenced
ohhhhh
##rolled
blacktwitter
blackhole
dcaudu
##shits
##eneg
terrell
differing
spiderwoman
spidergwen
bobble
monte
monumental
retrowave
idaho
##potato
freeload
buymet
##odynam
synd
bond25
sweets
##brain
pretends
completing
recie
##hands
impart
clement
indies
definite
capitals
hunnam
##scapes
##tober
planner
runaways
insulate
insidious
##mynft
curric
incidence
horcrux
dogeco
headphones
tryin
contrived
revived
excusing
snag
snip
snail
snob
snikt
specifics
merge
##ween
##weird
##whist
futa
futan
##uffed
addie
shorting
protagonists
holdings
squat
turnaround
socio
purist
colbert
tomi
##afternoon
schooled
placement
bids
propon
omggg
imagecomics
delhic
fairlaunch
generals
bringback
bringwyn
misn
misuse
miscar
misconduct
hamill
antigr
noncon
subset
exclus
narni
##dd90
returnofthejedi
posed
builder
testes
costly
##tress
selfless
##noh
lowe
lowers
massachusetts
waltz
breakups
successor
coverart
listeners
riches
richie
##echannel
youngjustice
devol
##ippers
attacker
affl
affinity
kissed
btt
salmon
specials
behindthesc
##forth
##playlist
multitude
congratulating
demi
electrom
majestic
protective
forgets
threatens
violet
airs
empires
##covery
dealers
equating
##neto
unfamiliar
wankers
lucrative
educating
sentiments
dana
weirdest
##llyy
inspires
searchers
##echnology
##inedream
denis
##merch
irres
flynn
eventual
britbox
##flight
digitaldrawing
robust
bloods
vsb
bcuz
golding
##doing
alienate
homo
##zzling
radically
spreader
severussnape
petits
closure
##eshad
domains
storming
observer
burgl
ghx
ghislaine
straightforward
143
logistics
extremes
##opsis
symbolic
musicals
##parable
catchy
suffice
hairstyle
##owski
motherlandfortsalem
organizing
martyr
opting
##evs
tasted
tasteless
theriseofskywalker
bottled
##bulls
accessories
sundayvibes
ladybug
summit
packing
cleaned
tatooine
boardwalk
##rament
microbe
0x7
0xa74
georgel
baldeagles
##mberg
criticisms
supes
grounding
iceland
florid
candace
mobil
programmed
199happy
objection
pedantic
nutshell
eternally
romancebooks
timo
tims
##marathon
legalized
kengr
kenyan
pureblood
quoteoftheday
employers
ultim
macho
gamingcommunity
jericho
baseless
kylie
wandering
shooters
counc
##orkian
23000x
subjected
pigeon
bernard
buddh
utilized
deterior
arguement
jabba
lowering
lowered
##ribe
layout
journeys
##itarians
##walkers
weights
colonizers
graders
flatten
performer
pitbullmetaverse
pinch
##ieties
##daq
ronin
astronom
astronomical
housed
ratioed
accompany
qualifying
qualification
smokes
smoked
illustrator
comparisons
demonize
integration
overtaken
##society
##ports
dedicate
crowds
reacted
blowjob
1971
##foil
rigid
synopsis
magnolia
##metal
trilogies
additionally
dungeon
mattm
3886
xxy
consuming
saturated
##iamond
##humour
jewell
##holm
spanner
##yyyyy
announcements
##ssssss
280
28th
midnightmass
##broke
pcgaming
##horror
honeymoon
jessie
##morgan
##sellers
requesting
clockwork
appropriated
appropriating
rosen
ozzy
constructs
macdonald
jasontodd
##aelf
measurable
indieauthors
homeschool
fortnit
injuring
phenotype
##7538
youths
declass
stalker
schumi
transformed
bulgar
##ophobia
transporting
tammy
unsurpr
regretted
pixels
cruiser
mailbox
ellie
##semester
installation
incorrectly
simpleton
exceptionally
##64a97
upsets
blurry
gloria
busts
buster
##finale
kamal
##ayek
framework
plainly
##000000
acquired
waist
waitt
reinvent
imperialism
circumstance
tackling
otter
volunteered
rotating
hottake
maximize
errone
abandoning
##4364a97
thelordoftherings
uncensored
bethes
haunts
snapshot
snapchat
unpaid
##ancients
shapesh
optimal
cuban
cooperation
##becarnage
51happy
channeling
aquago
crawling
paradigm
irishman
akita
passiveincome
nintendoswitch
iranian
piercebros
xxxxx
##abelova
juris
ancestry
withdrawing
##eeeeeeeeeeeeeeee
ecosystems
nichol
##ihad
vitamins
gfy
skelet
skeleton
shamelessselfpromo
nasdaq
##onnahome
dentist
dnc
impeached
fulfilling
ff7
permitted
constitutes
##superman
indoors
sixt
brundle
meteorite
osama
mislead
obstacle
metaphors
gatekeepers
nikki
rdj
dwaynejohnson
p2eg
travis
looser
tanked
temptation
##pitbull
inconsistency
peasant
disregarding
##breakable
kanyedr
noooooo
tigers
ewok
oversized
attribute
revisiting
mcdonalds
oppressors
misrepresented
##volence
offsetting
differs
cynth
slipped
inhumane
legislature
marshmallow
##51a25
##daysofchristmas
bookreviews
lsrael
monitored
omnibus
fleshed
dwarves
##andthewardrobe
corpse
catering
##96e22
unfollowed
lavish
smeared
persecuted
instrument
avery
tangerinedream
##chemist
kirkus
nhl
inhumansday
wagmi
zacksnyders
##kovic
unmatched
eradicated
eradicate
jewelry
academia
pawnmynft
vicar
zachary
seagulls
plummet
youtubechannel
enlightenment
bmwt
bacterial
mezco
depicts
resurrected
deplorable
adversity
crusade
bardem
##lingtonfiles
distrust
hemisphere
hobgoblin
imaginative
estimates
leagueofancients
caucas
gitmo
##ametaverse
whodunnit
wrenching
flameth
discourage
navigating
##jamesbondchallenge
ecomi
tingling
##zillas
illumin
misdeme
psychedel
eloquent
##daddy
bracket
impersonating
bosch
veggie
intuitive
infiltrated
masseffect
introspect
bouncing
bep20
grooming
menopause
prettiest
hilary
pagans
branches
newcomer
redeeming
incarcerated
photonovel
grievances
reassemble
shepher
employs
silicon
vocabulary
mormon
wreath
pratchett
##idelity
0nllyy
rendition
beverly
weinstein
acoustic
parabolic
penetration
planetarydefense
bumblebee
ostrac
##adc7538
deffo
graffiti
adolescence
velociraptor
himalaya
transmissible
filipino
snooze
maddow
##inemandates
##theyfall
predominantly
tunnels
zodiac
##d704364a97
inadequate
face302
blizzard
grotesque
handsoffethiopia
harrytruman
starwarsrebels
metapets
pitbulltokenc
propellant
##rödinger
trifecta
exxxotica
##mollett
##dragons
tsukiverse
constraints
ryoshitoken
venomlettherebecarnage
antmanandthewasp
jrrtolkien
wynonnaearp
rockefeller
etharkkumthunindhavan
theunforgivable
oxymoron
8218
dilem
fyeo
gintama
rishab
##e43e51a25
##パイダーマ
theburlingtonfiles
dolores
alucard
procrast
nftspaceship
guantanamo
marvel2021marathon
yelenabelova
buymetasaurs
delhicapitals
bringwynonnahome
##dd90d704364a97
behindthescenes
electromagnet
0xa74e43e51a25
piercebrosnan
kanyedrake
##96e22dd90d704364a97
zacksnydersjusticeleague
##adc753896e22dd90d704364a97
##パイダーマン
0xa74e43e51a25adc753896e22dd90d704364a97
0xa74e43e51a25adc753896e22dd90d704364a9750
3n
5am
8m
9am
aes
akin
aph
ao3
bk
bop
bach
bitten
bouch
baft
bumbling
cf
cun
cess
cine
cember
cush
cbc
dl
dong
duff
djo
dino
dipped
ere
ebert
eowyn
fook
fain
fian
fenn
gan
gid
gol
gens
gump
gals
gamed
gbbo
hike
hinting
hbar
jenson
jihad
kel
klaus
ld
lug
lsu
mng
nure
nxt
nio
ode
oven
ply
pus
pines
piet
pvp
pomp
pnr
qr
raph
roose
renders
ranging
sg
sig
sie
siss
surn
sato
srik
sessions
tid
taker
tiers
tumnus
uquid
ved
viper
wu
wakes
wool
wily
wager
xl
yas
yug
yaa
yulet
yuk
zip
zuck
zilla
マー
##rap
##rond
##rals
##uy
##uic
##uates
##mur
##mall
##mine
##mald
##melon
##pies
##pox
##pgs
##ep
##e6
##tc
##tom
##title
##iots
##cv
##cate
##carter
##nian
##fee
##fws
##follo
##lz
##laugh
##later
##luthor
##yaa
##killer
##dose
##w5
##washing
##xist
##bent
##bots
##billy
##7m
##goo
##gies
##global
##vac
##5f
##5k
##9f
##jordan
##qx
##230
##￼￼
##ベル
thé
thal
##erves
##erced
##ertheyfall
theetongue
thehard
thejoker
##onhour
##atism
##attr
##analy
##anmar
##arations
##arius
##oro
##orch
##enza
##itous
##itrea
##llah
tox
toot
toms
anci
youve
##reign
##asive
inane
##leberry
##icion
iteration
wha
whaaa
##stall
##stool
##stro
bele
befor
##alp
##alien
onion
##utz
##uten
##ionage
rewriting
relaunch
recharge
thatcher
stumble
statham
foreshad
haves
hazel
##igrew
faceort
##amer
##amalan
sht
sheryl
##opter
##opps
##adams
##ilos
chal
chump
chili
chimp
##chen
##iration
##irling
##imir
##iminal
##terms
weare
##illi
##illain
liqu
##than
##thorn
prat
pran
prologue
##olics
nex
nearing
##eemer
trout
troop
trench
##unting
##estro
##omez
amer
amqu
suz
##onger
mods
spinal
spouses
maisel
fru
friction
frowned
##geist
abi
##allyoutuber
alp
comms
justifies
oral
degem
nosed
lobot
wors
unap
unprof
unintell
pea
peaks
pocus
johansson
joaqu
engr
enthr
enlar
##ivet
##ivist
##ivian
upward
outspoken
leaps
leung
marge
marine
marian
seo
sev
seaw
smallyoutuber
##enday
##endell
ard
arctic
proff
knitting
kneeling
howling
pla
placing
plunge
exited
exacer
##ibble
usfws
brood
brats
thinker
clot
saver
discomfort
##inton
##osu
##oslc
##agent
scoot
crass
crude
crane
crony
crumbling
movienight
timelapse
newbie
newzeal
##asss
teampete
tweed
adol
cara
carlin
lovegood
dripping
##ffy
##ffff
##ideas
wraps
redhead
staraptor
##ishable
elrond
##places
quill
persia
showtime
##daysoft
##dayjamesbondchallenge
fireplace
##beak
plea
resched
preacher
daylight
afar
marvelmonday
harper
##manac
firstdates
skincare
##axin
conting
contention
2050
downside
##things
##coll
workin
##athly
##awan
##awling
checkmate
thanked
##mascul
perky
pervert
##readers
assed
assists
asserting
owls
##never
defect
fling
flan
flair
playable
probable
compuls
hoes
hoarding
badbatch
prescribe
endemic
belittle
homeland
blackmail
moonforce
dcfreaks
counties
lively
longshot
##getown
masquer
##dragon
##shed
##shorts
missmar
missouri
obfus
obesity
spacey
discern
seasoned
##menace
monologue
monolith
retreat
slime
slapping
kinder
ids
idle
racially
godbless
yeahhhh
##ocide
reparations
freeweights
posture
##ceptions
birding
highlander
10cat
syl
sycoph
sweetness
##brown
classless
starwarsbattle
simping
weep
meter
metar
fargo
greens
greys
greasy
imposing
instal
fanbo
raids
malecity
sunlight
cleans
schem
indv
##aterial
##aterrest
hunts
relativity
##ells
##toowell
##ofmag
##rule
insul
favored
aviation
leftovers
1939
doges
dogecoins
babes
regent
regency
reggie
banker
absolve
excite
config
confess
confisc
snd
humanities
wishful
merperson
parap
parole
##whope
kek
blob
blokes
doub
lawless
thanksgiving2021
addams
resting
newsflash
pecanpie
beauties
tomhidd
memecoins
chewing
chevy
rufi
settles
omitted
barring
barbad
baristas
barstool
facelay
argues
generates
staysafe
galactica
paula
hamburger
psychotic
greener
greenwich
midterms
antith
antagon
##anya
assigning
deadlines
excludes
##aptured
respectively
researcher
succumb
virology
stuffs
vijay
freec
valerie
##november
lows
lowkey
caliber
socials
crossroads
covert
##echul
versat
##ecollection
devoid
dreamer
dreamed
50pm
carson
espionage
##rections
##forces
##forauthors
30dayjamesbondchallenge
inflicted
cuter
congratsss
dumbasses
patently
patrons
mads
##ophile
digest
depiction
equitable
cultiv
unfounded
wano
cowork
treacher
watermelon
##cyon
luis
lube
erasure
dissol
dissap
circling
toni
millar
inspect
terminal
informing
referrals
rowlings
iris
irreg
quebec
boohoo
25daysoft
137
135
physi
labelled
replic
arranged
outerbanks
quickest
##cusable
debunk
developmental
judy
judas
hominem
roleplay
cardiac
exceeding
pandas
1700
punt
puns
mutated
sanderson
##kka
##eshorts
obsessing
eaton
eaters
puzzles
frontier
extremism
dragonite
speeder
intrins
##loyd
1600
401k
##xico
cartels
envious
melan
optics
bottoms
colder
notebooks
notepad
visitor
accessing
accessibility
##ocratic
innovate
streamers
##dogs
filler
benzos
updating
##frame
##fresh
0x45
buffet
criticising
hurtful
##strike
novellas
guarded
mobility
altseason
faulty
vanished
cryptocurrencynews
##meade
assumes
heavier
fascinated
hangover
timber
interviewer
rhop
rhoc
rhino
rhoslc
dangerously
bedtime
winslet
apologized
machin
nationwide
cookbook
##unders
armies
bonnie
##miles
hulhum
tougher
cashed
parkers
softly
defendant
primevideo
scamming
freshly
squidverse
providers
msg
separates
deterrent
tgsad
infrared
biochem
disgraced
twitchstream
journalistic
toro
##50k
clarke
campaigned
joni
colonized
colonisers
rollout
graded
johnsonout
##oxonhour
sacrament
annoys
3dprint
congressman
##hopmald
cornerstone
conservatorship
radioactive
sketchcard
quali
ripley
lmfaooo
illustrate
integral
integrate
powersupp
cocked
##portant
alexa
archae
archaic
gravy
bangs
honorary
fiat
associations
associates
synonym
rebirth
##promotion
magnoli
dipshits
formulaone
torys
##meta
reactionary
fellas
dungeons
broadband
heavenly
falcon9
##269
ltd
advocated
buckle
buckbeak
libra
ivan
tricked
rambling
visualize
olav
assisted
rejects
yayy
unambig
marching
collaborate
##ifestyle
transitioned
conflate
measles
ps5share
stereotypical
philosophyforauthors
esque
##falls
dispatch
##ohli
##marketing
ricardo
reliability
blasting
blasted
schumer
bulk
##urdock
lgbtqia
##sofdumbledore
collectiblefigures
prophetic
quotesforlife
laziness
squadron
patriotic
rubbing
naval
ribs
faceosition
springsemester
crafts
hyperbolic
##ogenic
cowardice
ummmm
battled
##lllll
glorify
centralized
pitbulltokenflying
##gamesh
ducks
##powered
05am
gatherings
comedypodcast
alcoholic
perpetuated
gardens
##296
steelbooks
occurring
##anchett
decentralised
##chaing
playstation5
boycotted
crosby
climateemer
conquering
400k
hodling
hodlers
rivendell
undone
ecology
8810
brutally
##productive
##productions
buzzoxonhour
condemning
jarring
carnival
lightsabers
narcissism
narcissists
styx
03pm
coupon
guitarist
wrecking
stomp
compromising
kitties
akil
victorians
anticipate
gobletoffire
hugo
emerging
bahamas
cuomo
nigerian
stimulation
winnersh
supergirlcw
weasleytwins
lamps
doctorstrange2
04am
bolts
mtg
demonstrating
demonstrably
abudhabi
reproduce
scandals
shamelessselfpromos
tapes
actionfigurephotography
extraterrest
licensing
sorely
unicat
dubious
enthusiast
grinding
neighboring
obliged
obligated
sterling
anatomical
yassss
sparking
shyamalan
stormtroopers
dystopia
stoic
enhanced
##videos
hannah
obstruct
sedition
chopper
lyrical
empowering
battleship
panties
cheeks
tinfoil
##addock
lunarcrush
discriminating
looters
lootboxes
mathematically
sacrificing
aesthetics
lyric
crazed
crazier
slimer
positives
sentinels
parasitic
dwee
truestory
montgom
antisemitic
obeyed
containers
##dddddddd
elitists
surfing
surfaces
guru
oppressor
##volution
mosqu
resembles
resemblance
oblivious
dolphins
dividends
maldivian
hashtags
diabetic
cohort
mockingbird
prolifer
lexluthor
scalpel
slammed
abcbirds
endorsement
maxverstappen33
##enovel
##igobb
immunized
cigarette
hellfiregala
covaxin
croce
supershopmald
hicetnunc2000
collapsing
phillips
attachment
humiliation
singularity
##ranos
##politics
etherium
households
rudy
tshirts
langtwt
allocation
infringement
absorb
militia
dyson
hitchcock
mendes
blender3d
voluntarily
peddled
nwo
pussies
uxm
sprayed
ororo
boiler
calculation
youtubeshorts
501stlegion
indoctrination
conjuring
persistence
resonate
confronting
skyrocketed
starwarsthe
libtards
maythe4th
pyramids
mantra
catgirlcoin
174k
reimagining
unsubscribed
[...]
